{
  "▁tub": 49036,
  "▁머": 55609,
  "▁teised": 6958,
  "tv": 52970,
  "乾": 37740,
  "寵物": 56824,
  "/5": 5434,
  "ወጣው": 12545,
  "owe": 34221,
  "▁Kiadó": 19485,
  "PG": 43889,
  "▁Story": 36048,
  "街道": 53583,
  "▁County": 42009,
  "Top": 51561,
  "▁Gali": 36172,
  "▁Ven": 394,
  "怕": 34961,
  "淹": 24752,
  "esto": 36708,
  "▁Victoria": 36379,
  "▁fonduri": 9842,
  "▁Catalunya": 55928,
  "▁rele": 42034,
  "szerelés": 126,
  "ville": 1938,
  "leo": 52895,
  "▁tink": 42975,
  "绝大多数": 23916,
  "堕": 29198,
  "持っている": 22584,
  "▁fick": 3437,
  "▁parasites": 34479,
  "▁vie": 39548,
  "дердин": 7512,
  "▁realizarea": 18108,
  "▁Puoi": 19670,
  "лівы": 7983,
  "▁(3)": 34987,
  "眼前": 51826,
  "mberg": 11424,
  "▁Лип": 11681,
  "Ob": 41797,
  "दश": 5510,
  "▁Linux": 35783,
  "▁რომელთა": 9083,
  "▁Henri": 52364,
  "▁malengo": 17855,
  "문의": 52826,
  "鬧": 12901,
  "游": 8889,
  "මී": 2431,
  "▁rod": 25765,
  "▁প্রয়োজন": 7000,
  "▁procesul": 6240,
  "▁보내": 48511,
  "图": 56010,
  "▁디자인": 44691,
  "▁patent": 37130,
  "援助": 6033,
  "必要": 7224,
  "▁Vest": 27263,
  "诙": 31995,
  "▁իրավունքի": 17452,
  "助": 9398,
  "ny": 35735,
  "我覺得": 4435,
  "▁подлежат": 22555,
  "▁suaminya": 13725,
  "▁ماست": 13785,
  "▁tänava": 8960,
  "▁present": 8287,
  "munk": 46279,
  "有時候": 13962,
  "▁sebaik": 11712,
  "のある": 36441,
  "▁qeveria": 10933,
  "▁lëkurë": 18586,
  "▁conten": 33936,
  "adviseur": 18181,
  "2": 35934,
  "▁нём": 23427,
  "▁obviously": 16437,
  "▁rud": 19191,
  "▁mater": 40142,
  "要求": 43648,
  "阶段": 27837,
  "暑": 50995,
  "완": 37511,
  "oire": 43224,
  "レー": 39053,
  "остей": 365,
  "entes": 11843,
  "▁دومین": 9347,
  "simi": 46888,
  "种": 16393,
  "ાંક": 9096,
  "leider": 6151,
  "▁ಮಾಡಿಕೊಳ್ಳ": 5848,
  "09)": 54521,
  "▁Oqtay": 27651,
  "幷": 32785,
  "ホ": 38468,
  "vægt": 12967,
  "tra": 12297,
  "ማንኛውም": 3047,
  "ISS": 40724,
  "reak": 45387,
  "▁shu": 53908,
  "▁quick": 47348,
  "▁Sīkdat": 24511,
  "遊客": 188,
  "왔": 33839,
  "nais": 35845,
  "137": 7165,
  "ète": 52070,
  "▁Slovakia": 20586,
  "▁server": 1886,
  "ruhusu": 22137,
  "▁taqdir": 16680,
  "éducation": 7703,
  "▁Kerkûkê": 24597,
  "60": 41629,
  "给自己": 11134,
  "▁capit": 47799,
  "▁Stat": 28287,
  "▁Ποι": 3258,
  "non": 47514,
  "▁Libre": 54401,
  "▁potentielle": 20360,
  "ides": 18201,
  "sad": 17098,
  "▁bibliografi": 20503,
  "Wi": 38136,
  "▁Gary": 8779,
  "▁llama": 48386,
  "omat": 39075,
  "▁rag": 34824,
  "▁ବିଜେପିର": 21479,
  "▁Or": 37153,
  "となる": 38741,
  "提问": 21956,
  "mbu": 18886,
  "rsa": 31469,
  "鱧": 32842,
  "▁потребителя": 6345,
  "▁obiectiv": 9920,
  "确认": 54478,
  "▁Điện": 45788,
  "▁раёне": 9467,
  "▁psi": 23438,
  "▁debut": 37477,
  "崭": 33751,
  "▁bina": 27114,
  "ando": 37527,
  "vora": 49803,
  "▁Pang": 40777,
  "mit": 39559,
  "イベント": 37054,
  "殭": 33671,
  "▁Roll": 42532,
  "este": 42647,
  "如果": 37465,
  "bro": 47316,
  "gura": 49626,
  "γιάννη": 18508,
  "▁ES": 56891,
  "▁finalizar": 9417,
  "ვებ": 2120,
  "▁gear": 49959,
  "▁ekonomike": 5603,
  "학생": 49644,
  "▁համարվում": 12593,
  "▁milles": 5947,
  "꺅": 32487,
  "ကြည့်": 19307,
  "▁下一篇": 40098,
  "▁забране": 4333,
  "解釋": 2851,
  "utum": 54793,
  "▁Muze": 1103,
  "成員": 50804,
  "ona": 32065,
  "▁Ron": 37084,
  "餘": 38383,
  "▁1984": 23800,
  "彧": 32572,
  "▁miesiąca": 14098,
  "▁irritere": 18345,
  "▁שוקולד": 19909,
  "▁검색": 35649,
  "ADA": 14727,
  "▁Michel": 41206,
  "வற்ற": 6511,
  "데이": 45536,
  "▁štvor": 20511,
  "ㄥ": 32315,
  "▁ихэнх": 21679,
  "환경": 1083,
  "▁תח": 1743,
  "pah": 46557,
  "▁կապերի": 20532,
  "ящих": 6097,
  "喳": 29785,
  "ites": 43680,
  "設備": 22438,
  "president": 11107,
  "子ども": 44510,
  "pur": 42045,
  "顆": 51136,
  "jur": 19898,
  "кової": 4706,
  "sian": 39304,
  "aw": 13050,
  "phon": 50770,
  "▁이상": 21827,
  "筈": 30974,
  "▁쓰": 46614,
  "腌": 30690,
  "Değişik": 28426,
  "▁ਤੋੜ": 26717,
  "▁combien": 20983,
  "▁បំ": 6364,
  "每天": 14358,
  "▁bald": 37343,
  "▁ገቢ": 13591,
  "▁peli": 23801,
  "卢": 54654,
  "▁Cymdeithas": 6596,
  "vár": 27425,
  "biec": 52342,
  "API": 50504,
  "回到": 37905,
  "▁Špe": 8693,
  "麗": 38142,
  "=3": 51024,
  "tajwa": 17246,
  "gal": 35307,
  "Iz": 52841,
  "▁Mex": 56801,
  "▁Garden": 39081,
  "cast": 44806,
  "▁kids": 37476,
  "▁performance": 28050,
  "▁انگلیس": 13745,
  "▁Life": 15174,
  "เลนส์": 20329,
  "娅": 28031,
  "▁ההון": 20995,
  "▁տրամ": 22202,
  "▁барил": 19454,
  "﷫": 32157,
  "這裡": 39057,
  "芝": 50339,
  "圣": 34432,
  "adore": 49698,
  "▁nostalgi": 51206,
  "▁Het": 21080,
  "高的": 43858,
  "▁rendszeres": 356,
  "grade": 41048,
  "윗": 25739,
  "筏": 30905,
  "▁duhur": 6978,
  "킬로미터": 24970,
  "não": 6556,
  "▁eso": 2604,
  "▁ಬೀರ": 25901,
  "▁Narod": 41764,
  "汙": 29065,
  "▁organism": 33909,
  "▁흔히": 28516,
  "UNDE": 24060,
  "▁urme": 15831,
  "▁這": 41719,
  "▁stau": 1512,
  "ແຫ່ງຊາດ": 6353,
  "▁ಬಾರಿಗೆ": 23547,
  "Գյումրի": 13974,
  "lasti": 53288,
  "▁bil": 25386,
  "ென்றால்": 22439,
  "▁Nachricht": 14737,
  "색": 14525,
  "淤": 29817,
  "▁histori": 37533,
  "▁Bra": 46709,
  "terior": 44904,
  "▁окружен": 25298,
  "▁родителям": 13980,
  "温泉": 9246,
  "▁reduz": 5961,
  "NYCH": 25032,
  "👆": 30341,
  "ђо": 24572,
  "▁nacionalist": 22839,
  "▁electro": 51471,
  "▁принимал": 22579,
  "ນີ້ແມ່ນ": 21009,
  "▁isola": 44251,
  "▁kalitesi": 6627,
  "协调": 46304,
  "31": 43037,
  "pok": 29985,
  "▁ubrza": 27417,
  "▁Oso": 47294,
  "需要": 34817,
  "▁Ut": 39514,
  "▁sreće": 27354,
  "▁Slavi": 19698,
  "foni": 49934,
  "shan": 37278,
  "ular": 38089,
  "▁algorithm": 27737,
  "väri": 57020,
  "▁Anal": 37102,
  "pai": 19807,
  "▁affida": 54998,
  "▁cro": 7648,
  "pek": 17460,
  "▁завършва": 18442,
  "vuuden": 11197,
  "平时": 53013,
  "": 32060,
  "▁기준": 50474,
  "昺": 33084,
  "▁претстави": 21635,
  "壮": 49197,
  "▁TÁ": 18952,
  "明年": 49150,
  "ake": 35066,
  "epi": 48471,
  "广州": 42185,
  "▁creo": 37070,
  "▁kvalita": 1165,
  "Λ": 35843,
  "留下": 39100,
  "ምርጫ": 9504,
  "dug": 4486,
  "建設": 38453,
  "νεται": 6272,
  "▁kam": 38982,
  "▁policaj": 1834,
  "▁سينگار": 28133,
  "ΙΑΣ": 12368,
  "▁Yang": 42845,
  "▁mīl": 7687,
  "▁Bet": 47105,
  "▁150": 36786,
  "媒体": 15114,
  "▁memenangi": 20246,
  "EVER": 57154,
  "▁свойств": 20849,
  "210": 54396,
  "手段": 36366,
  "מצרים": 16373,
  "▁Duits": 23886,
  "အွန်လိုင်း": 27948,
  "ropa": 46664,
  "级": 2032,
  "即将": 50528,
  "▁Wel": 36202,
  "记录": 40533,
  "lasse": 8503,
  "▁представљен": 25827,
  "▁Arch": 47279,
  "▁awesome": 52136,
  "咏": 30247,
  "▁Şö": 26514,
  "▁현금": 25427,
  "莞": 29007,
  "andu": 41374,
  "कश्मीर": 16724,
  "▁end": 37949,
  "▁ayaw": 10556,
  "▁Parang": 12094,
  "sty": 54756,
  "▁Tang": 46751,
  "ría": 49954,
  "nove": 49075,
  "琯": 32807,
  "▁Zo": 45795,
  "beda": 48939,
  "sap": 41598,
  "▁Temat": 7595,
  "mén": 47974,
  "▁обес": 18940,
  "τήρι": 5731,
  "▁Feder": 46867,
  "▁האישי": 3746,
  "又": 23811,
  "檜": 30729,
  "▁Зі": 7861,
  "▁Elizabeth": 50005,
  "承認": 10047,
  "▁Lupa": 16793,
  "▁پنجم": 9341,
  "▁kıyafet": 19647,
  "▁Kulit": 6371,
  "▁protected": 35940,
  "漢": 39335,
  "▁textil": 48561,
  "ち": 33899,
  "▁flu": 11575,
  "的特点": 13666,
  "▁קודמות": 26704,
  "▁label": 48619,
  "▁ਮਹਿਲਾ": 9592,
  "暢銷": 25308,
  "係": 34680,
  "▁rodinné": 14235,
  "ugi": 39771,
  "vira": 38266,
  "▁Tank": 47099,
  "▁fhoireann": 23946,
  "蚣": 31473,
  "継": 5840,
  "摆脱": 23893,
  "បញ្ជា": 11351,
  "▁központi": 14059,
  "stup": 8057,
  "▁iPod": 52555,
  "ilia": 37126,
  "▁Perché": 708,
  "vaz": 49919,
  "iba": 19102,
  "အမည်": 16252,
  "欢": 50932,
  "▁Aste": 47878,
  "ၾကည့္": 12662,
  "▁SL": 40308,
  "▁lukija": 13774,
  "▁휴": 53844,
  "ef": 40391,
  "ering": 40293,
  "a": 4,
  "께": 44000,
  "▁биха": 12691,
  "▁neo": 14462,
  "▁香港": 47903,
  "▁verkeerd": 1239,
  "▁ការងារ": 588,
  "▁Jelenleg": 22961,
  "etto": 33914,
  "មកដល់": 19749,
  "▁خرج": 1391,
  "kaasu": 19133,
  "▁პირადი": 19303,
  "▁size": 8043,
  "▁продуктивност": 25546,
  "▁පසුබිම": 27135,
  "افغانستان": 25892,
  "▁trade": 43737,
  "nom": 15920,
  "▁commission": 46937,
  "Ζ": 48409,
  "▁Jessica": 55030,
  "▁opportun": 6310,
  "ეცა": 4003,
  "Ra": 5683,
  "▁protesta": 41981,
  "功": 28261,
  "ndolo": 55935,
  "填": 44705,
  "▁der": 5312,
  "word": 42123,
  "ør": 53154,
  "▁bl": 17,
  "▁Jord": 52030,
  "▁Ang": 28323,
  "▁debate": 35765,
  "शिवाय": 57319,
  "pem": 49992,
  "嫄": 33087,
  "▁detayları": 22909,
  "汇率": 18666,
  "adu": 7679,
  "▁Waren": 54968,
  "族": 16559,
  "傳輸": 18575,
  "▁war": 14726,
  "shma": 52292,
  "▁användas": 1048,
  "▁criminal": 42867,
  "겠습니다": 51240,
  "▁છેલ્લા": 9329,
  "▁unha": 11961,
  "▁провеждане": 10618,
  "鋯": 32318,
  "먹": 54550,
  "action": 41189,
  "▁Pina": 43875,
  "也不能": 4658,
  "fehér": 9965,
  "▁valandas": 27070,
  "▁موافق": 1072,
  "bəyov": 27067,
  "▁piştgirî": 28436,
  "▁ms": 48679,
  "▁RC": 52507,
  "淇": 28941,
  "떤": 29598,
  "▁resum": 48820,
  "tică": 4756,
  "難しい": 45651,
  "▁isimler": 52,
  "▁موٹر": 16600,
  "▁خانہ": 9416,
  "统计": 41451,
  "▁beweeg": 16010,
  "など": 44712,
  "武汉": 54007,
  "▁büdcəsi": 12271,
  "處理器": 24993,
  "କ୍ଷଣ": 14647,
  "hop": 45557,
  "▁izbris": 22268,
  "BUNGE": 23130,
  "▁buddh": 17615,
  "难以": 45259,
  "▁varsta": 3512,
  "▁Esa": 50399,
  "▁malo": 47161,
  "▁सरकारने": 6625,
  "▁gaf": 48034,
  "開催": 39388,
  "ア": 46921,
  "▁Abbas": 42698,
  "หอย": 19969,
  "cili": 35515,
  "nique": 41502,
  "▁하나님": 53872,
  "▁Arthur": 51953,
  "▁Зарим": 20921,
  "勁": 4563,
  "쨩": 32054,
  "▁අනාගතය": 17871,
  "穫": 23385,
  "▁exact": 32076,
  "焘": 32441,
  "ർക്ക്": 15926,
  "▁mengejar": 22394,
  "▁Stamp": 14024,
  "ėjimą": 441,
  "▁أف": 6758,
  "▁(1999)": 11239,
  "nota": 45654,
  "boj": 12279,
  "syk": 40656,
  "▁markkina": 19205,
  "公司的": 34506,
  "▁użytku": 24616,
  "nok": 39131,
  "▁saga": 43161,
  "eme": 6392,
  "▁classifica": 39851,
  "▁rastî": 57259,
  "▁kõrg": 21866,
  "▁шифр": 19709,
  "▁pani": 22743,
  "蕓": 32902,
  "其他的": 1763,
  "ź": 17122,
  "▁expand": 49549,
  "▁Kaf": 8765,
  "▁povedať": 780,
  "DZ": 52361,
  "邀请": 49906,
  "楽しみ": 48050,
  "▁Sul": 56887,
  "▁Sono": 28423,
  "▁Digər": 4792,
  "pall": 7559,
  "▁pero": 17947,
  "மர்": 8874,
  "▁persoană": 7535,
  "▁consapevole": 28283,
  "▁178": 48756,
  "▁īsteno": 4741,
  "eurs": 17587,
  "狗": 34756,
  "Finan": 53410,
  "暄": 30363,
  "愛好者": 28041,
  "符合": 27229,
  "▁California": 39505,
  "囂": 29292,
  "▁સ્ટાર": 19817,
  "▁Job": 36844,
  "עיסוק": 18600,
  "▁study": 37792,
  "期限": 48343,
  "՟": 31529,
  "滿滿的": 28455,
  "versi": 39476,
  "▁ATM": 51608,
  "脆": 56540,
  "▁Mega": 34556,
  "▁petrol": 40488,
  "qe": 3995,
  "▁egal": 38313,
  "▁tranquilo": 9748,
  "入住": 50094,
  "▁발전": 48037,
  "技术": 43157,
  "意思": 43959,
  "aha": 49937,
  "▁portala": 2004,
  "▁fail": 38012,
  "uras": 53563,
  "诲": 30845,
  "bang": 54625,
  "yin": 55728,
  "rice": 36787,
  "690": 2019,
  "怎样": 43466,
  "▁rafforza": 21673,
  "▁demografi": 7201,
  "keen": 41763,
  "amp": 33905,
  "▁күнгө": 23776,
  "累": 36592,
  "含": 14110,
  "当初": 56141,
  "▁Nasi": 53296,
  "姆": 34237,
  "▁feia": 7526,
  "▁Athen": 55988,
  "yra": 38969,
  "▁reflect": 41272,
  "zing": 37867,
  "▁cer": 48160,
  "▁жакында": 14533,
  "▁մասնակի": 23606,
  "딩": 43075,
  "ème": 28229,
  "▁mbledhje": 17224,
  "泥": 49143,
  "eke": 48066,
  "国際": 53315,
  "▁新": 46042,
  "▁amikoj": 22404,
  "▁Stal": 54211,
  "价格": 15827,
  "▁azından": 18116,
  "edi": 11190,
  "রাই": 8522,
  "NIC": 48373,
  "ë": 627,
  "Забав": 14171,
  "vais": 51722,
  "▁සරත්": 21914,
  "▁Meh": 35894,
  "▁pačios": 19473,
  "▁suve": 1105,
  "▁Tri": 41972,
  "៎": 29470,
  "▁visione": 4267,
  "盒": 42321,
  "汆": 33448,
  "歓迎": 26737,
  "跬": 32986,
  "▁Дина": 20968,
  "品牌": 52574,
  "▁Senegal": 15728,
  "իլի": 9785,
  "▁Dela": 47733,
  "▁139": 45592,
  "▁강": 8756,
  "▁посмотрел": 4465,
  "əsində": 5891,
  "▁되면": 7257,
  "佈": 52356,
  "▁կանգ": 9851,
  "▁학교": 43732,
  "▁SB": 55158,
  "▁decora": 47785,
  "▁sabia": 56952,
  "mant": 41522,
  "▁traditionell": 11574,
  "▁యువత": 21187,
  "▁nasihat": 9702,
  "▁Id": 32298,
  "▁Украіна": 28177,
  "擠": 11629,
  "耙": 32020,
  "▁absolv": 45228,
  "タクシー": 26985,
  "▁povis": 57184,
  "vern": 39848,
  "▁አፍ": 3313,
  "▁Dis": 46831,
  "▁نقطة": 2506,
  "▁يمثل": 17600,
  "▁yen": 34322,
  "像": 44521,
  "▁Geb": 47676,
  "▁ئىسمى": 26038,
  "reve": 51282,
  "makelaar": 23063,
  "通": 39250,
  "novo": 41722,
  "office": 47740,
  "主题": 42778,
  "▁certain": 28728,
  "▁ئۈچ": 1404,
  "▁com": 38607,
  "bras": 44924,
  "苫": 32176,
  "cios": 41198,
  "▁course": 12817,
  "SR": 39165,
  "dica": 19409,
  "博览会": 22293,
  "贼": 27940,
  "۴۳": 27323,
  "▁So": 1576,
  "셀": 48950,
  "团队": 23274,
  "keh": 51475,
  "すると": 15567,
  "MF": 47941,
  "▁수행": 538,
  "▁research": 33929,
  "ຂອງການ": 10216,
  "ison": 39724,
  "▁ചോദിച്ച": 5854,
  "čić": 36231,
  "▁říci": 25941,
  "आज": 12722,
  "園": 17413,
  "nn": 1863,
  "刨": 30151,
  "JO": 34452,
  "jer": 40349,
  "▁4)": 9636,
  "yol": 44422,
  "⇁": 31419,
  "ിറങ്ങിയ": 14213,
  "淄": 30260,
  "▁Keyboard": 26646,
  "▁ਚੁੱਕ": 2193,
  "▁tags": 48982,
  "▁Jak": 41032,
  "▁bendi": 13734,
  "とのこと": 54741,
  "▁ustalenia": 26642,
  "ходила": 15059,
  "進而": 9590,
  "▁Sunshine": 25744,
  "「": 45668,
  "มาเลเซีย": 26620,
  "▁талын": 21802,
  "▁akin": 34733,
  "にして": 41671,
  "mmen": 23962,
  "nym": 43822,
  "STI": 46150,
  "▁wood": 2444,
  "▁esquece": 20281,
  "튤": 31604,
  "siti": 46535,
  "bulo": 42733,
  "自体": 56412,
  "▁Análise": 25468,
  "<s_creditcardprice>": 57564,
  "湍": 31198,
  "▁هوس": 11480,
  "▁ልማት": 62,
  "▁Quick": 54641,
  "▁prirode": 13561,
  "▁sokeri": 16316,
  "▁(5": 3870,
  "▁Silkeborg": 24684,
  "olu": 24187,
  "▁wybitn": 27316,
  "妙": 46637,
  "▁përcaktuar": 27957,
  "cket": 34978,
  "▁vuelta": 1097,
  "ացրեց": 24275,
  "▁시절": 14441,
  "ישו": 16355,
  "▁Ku": 11058,
  "▁penale": 205,
  "我們會": 19517,
  "脆弱": 16798,
  "အောင်မြင်": 23128,
  "끼": 47758,
  "组织的": 7951,
  "▁;": 35106,
  "▁horrible": 20022,
  "鮨": 31661,
  "▁testet": 8851,
  "thur": 6657,
  "bah": 6832,
  "▁Endüstri": 27340,
  "狀況": 41941,
  "倘": 27211,
  "gebouw": 49017,
  "zaka": 49032,
  "吃": 39572,
  "肆": 18394,
  "▁rinktinė": 17807,
  "ніцтва": 6670,
  "▁недвижим": 22516,
  "▁lack": 55635,
  "லங்கா": 19433,
  "cert": 53422,
  "終了": 47642,
  "▁cl": 37028,
  "是否": 1070,
  "▁host": 35026,
  "▁ordem": 6375,
  "ศิริ": 14477,
  "mutter": 19680,
  "▁løbe": 8896,
  "▁ప్రాంతాల": 21783,
  "对": 926,
  "▁மோடி": 3473,
  "MDB": 49156,
  "▁Hå": 50586,
  "lat": 27534,
  "▁constant": 44153,
  "ducere": 8302,
  "▁alan": 2346,
  "驗": 16998,
  "▁duo": 37705,
  "える": 35299,
  "satu": 47968,
  "06.": 23448,
  "▁welatî": 24921,
  "▁કરેલ": 16916,
  "자에게": 56736,
  "▁read": 5799,
  "▁підвищен": 15656,
  "cun": 38663,
  "▁Boże": 12054,
  "并没有": 39677,
  "☟": 32136,
  "▁stavi": 11801,
  "pari": 33665,
  "ALL": 48173,
  "▁Netflix": 45877,
  "▁בחיי": 11050,
  "atti": 37538,
  "▁tarzda": 21261,
  "риан": 9966,
  "▁दिनांक": 21377,
  "ETA": 36199,
  "馊": 32294,
  "▁Noël": 3712,
  "周期": 52481,
  "形象": 39166,
  "醸": 29740,
  "▁Cons": 39307,
  "ካል": 5388,
  "비가": 10500,
  "▁виглядає": 24857,
  "▁require": 47486,
  "▁Švedsk": 20636,
  "띨": 32961,
  "tzi": 39046,
  "cik": 13884,
  "为主": 52331,
  "leta": 35363,
  "纭": 30949,
  "▁만": 35426,
  "铛": 33513,
  "▁Alternative": 1024,
  "頁": 41108,
  "C": 40956,
  "▁Ramon": 52074,
  "▁hour": 45139,
  "Так": 8508,
  "▁Trần": 40605,
  "▁centres": 49484,
  "順": 26424,
  "记住": 13299,
  "蜻": 33565,
  "历史上": 8702,
  "110": 38113,
  "ລັງ": 14779,
  "uran": 11819,
  "▁సాయి": 11120,
  "▁방법": 35497,
  "斷": 42956,
  "ZIA": 3431,
  "현": 9773,
  "▁Bho": 55072,
  "ɨ": 19379,
  "外交": 51135,
  "▁reagieren": 24917,
  "زات": 7251,
  "ထောက်": 5012,
  "▁הרווח": 22799,
  "书": 55578,
  "▁작성": 45352,
  "▁Blond": 54876,
  "ilebilir": 10546,
  "꽉": 29797,
  "ビタミン": 20243,
  "ガ": 34458,
  "ēr": 22454,
  "したのは": 18726,
  "嵋": 32222,
  "学": 39743,
  "▁pamje": 12234,
  "녀": 36483,
  "当天": 52318,
  "nick": 48382,
  "▁9)": 51539,
  "さん": 10501,
  "▁даўно": 20344,
  "keta": 9433,
  "/4": 16908,
  "▁polit": 36148,
  "বিস্তারিত": 24270,
  "▁Camera": 41220,
  "სწრო": 27676,
  "仔": 40911,
  "ligen": 25540,
  "▁Kunde": 49096,
  "▁nos": 56221,
  "쉑": 32957,
  "פרד": 13645,
  "▁Daw": 55215,
  "▁Marian": 49743,
  "立即": 39776,
  "돗": 30859,
  "▁vurğulayıb": 8615,
  "2002": 40139,
  "▁Bull": 37227,
  "显然": 55753,
  "ブロック": 22761,
  "लिका": 9535,
  "▁뉴스": 41795,
  "050": 51820,
  "▁પકડ": 16404,
  "▁Ülke": 9406,
  "▁schauen": 7542,
  "鄲": 33117,
  "▁liggja": 22209,
  "▁talle": 38034,
  "ጊያ": 19265,
  "▁África": 8943,
  "밍": 10782,
  "▁Prin": 32264,
  "▁آشنایی": 96,
  "幽": 5836,
  "庶": 29203,
  "mpf": 38340,
  "veiði": 15313,
  "싣": 33550,
  "▁আজি": 24656,
  "唁": 31773,
  "anta": 39976,
  "송": 41115,
  "▁Baku": 53510,
  "ທ້ອງຖິ່ນ": 21208,
  "▁راضی": 15731,
  "▁місяці": 13330,
  "▁Von": 24202,
  "▁overheid": 4678,
  "疫": 5512,
  "tô": 49727,
  "▁chasse": 18711,
  "kak": 37512,
  "▁Dai": 43915,
  "ML": 39371,
  "paz": 40546,
  "किल": 16775,
  "▁Vino": 5990,
  "▁ON": 35512,
  "有不少": 3017,
  "▁휴대폰": 24764,
  "▁Isabel": 44730,
  "▁this": 54964,
  "▁aroma": 41241,
  "▁Anh": 56827,
  "▁مطالعات": 5436,
  "遢": 33466,
  "angan": 3126,
  "शिप": 12292,
  "▁natur": 2936,
  "ős": 45609,
  "ないと": 47160,
  "dorf": 46170,
  "pata": 11997,
  "憧": 29015,
  "▁مالیاتی": 21079,
  "▁povinný": 17384,
  "cions": 45353,
  "▁Coll": 54578,
  "sele": 28126,
  "▁ປ້ອງ": 20239,
  "敌": 1014,
  "赅": 33233,
  "מבנה": 7244,
  "♘": 31476,
  "▁Negli": 20673,
  "▁technology": 44752,
  "PA": 5647,
  "歡": 55306,
  "▁lat": 1296,
  "廁": 24216,
  "矽": 26387,
  "uro": 4928,
  "긴": 42924,
  "▁DEL": 23594,
  "rette": 44069,
  "内心": 54238,
  "▁王": 55011,
  "ουτ": 15896,
  "切": 51726,
  "▁Rêxistin": 27813,
  "▁ірі": 4990,
  "▁home": 44142,
  "導致": 41566,
  "▁Anders": 37931,
  "▁Privat": 38895,
  "iku": 3718,
  "▁Jerusalem": 45650,
  "▁Ante": 40924,
  "imo": 28604,
  "方も多い": 16459,
  "aks": 28739,
  "炼": 3044,
  "køb": 53089,
  "▁యుద్ధం": 23376,
  "erat": 7826,
  "▁შევი": 12326,
  "蠻": 1438,
  "rti": 15329,
  "依靠": 57102,
  "ėdamas": 20513,
  "▁Élet": 10035,
  "▁invitados": 22960,
  "▁Erzurum": 19381,
  "born": 45315,
  "雙": 11168,
  "▁ubat": 8260,
  "▁беш": 6038,
  "▁කිව්වෙ": 24274,
  "▁mur": 51670,
  "は非常に": 20274,
  "走出去": 22954,
  "谨": 29320,
  "▁age": 36614,
  "▁omnibus": 37903,
  "执": 46677,
  "▁got": 40135,
  "▁katılma": 14100,
  "▁Project": 34770,
  "▁sarf": 15222,
  "就有": 38288,
  "▁certifikát": 24160,
  "蔺": 31472,
  "▁And": 37687,
  "▁pages": 38828,
  "שמת": 15034,
  "5000": 35518,
  "小说": 51101,
  "▁gl": 39407,
  "laus": 34318,
  "rini": 44087,
  "via": 37561,
  "↬": 31794,
  "het": 10790,
  "▁norm": 26430,
  "MAI": 7857,
  "▁ڀاء": 22330,
  "▁Také": 11953,
  "會員": 42005,
  "▁ඉන්නව": 21270,
  "▁εργασίες": 24463,
  "▁Blue": 26954,
  "ingen": 47641,
  "▁Auk": 47768,
  "▁Italia": 51295,
  "ワー": 52063,
  "μακρ": 14350,
  "▁Có": 3325,
  "▁виявили": 17445,
  "▁جاده": 611,
  "以下の": 44788,
  "bër": 49336,
  "曦": 29344,
  "科技有限公司": 4637,
  "教えてくれ": 23235,
  "визија": 3618,
  "▁평균": 50231,
  "cks": 26790,
  "蠣": 29844,
  "办事处": 27432,
  "▁pita": 51783,
  "▁köprü": 25425,
  "▁repente": 17801,
  "▁Däremot": 24889,
  "史": 20787,
  "rador": 50037,
  "bele": 36503,
  "눔": 32552,
  "▁דב": 17783,
  "▁soba": 55751,
  "▁بدین": 9771,
  "▁ଆସିଲା": 25482,
  "료": 9488,
  "نور": 5008,
  "▁peaks": 38522,
  "<s_num>": 57566,
  "▁hvenær": 12906,
  "蘚": 33126,
  "▁potenzia": 3764,
  "богат": 3052,
  "鄔": 32099,
  "▁пережива": 995,
  "엘": 49813,
  "ה": 43154,
  "▁Hin": 21864,
  "▁ভগ": 9695,
  "付出": 45474,
  "sem": 45408,
  "探": 12710,
  "跟": 39202,
  "▁спремни": 21566,
  "▁eat": 50213,
  "頭": 40047,
  "997": 18980,
  "梳": 26053,
  "삶": 30103,
  "▁anahtar": 21375,
  "96": 4180,
  "всій": 26226,
  "▁Rou": 45108,
  "عاب": 4374,
  "لىنىپ": 1899,
  "▁σκληρ": 3472,
  "▁events": 42106,
  "▁„": 8845,
  "pot": 51604,
  "tva": 46244,
  "оонун": 22194,
  "▁Gram": 42335,
  "のは": 48671,
  "ଳୁ": 12603,
  "岭": 20616,
  "▁مرجع": 3372,
  "麦": 46270,
  "▁的相簿": 47429,
  "▁binlerce": 12572,
  "疎": 33728,
  "업": 5707,
  "▁TU": 15188,
  "▁flash": 35870,
  "ımızı": 8082,
  "▁popul": 37131,
  "ឪ": 29585,
  "▁මිනිහ": 8710,
  "diagnos": 42019,
  "的作用": 40987,
  "国际": 44758,
  "▁Syed": 44993,
  "▁явдал": 1497,
  "Ri": 27449,
  "dali": 27768,
  "銹": 30714,
  "isté": 56955,
  "▁matrac": 13382,
  "пробуйте": 18202,
  "▁Pont": 40805,
  "▁পদ": 2457,
  "rado": 14552,
  "榮": 43877,
  "혔": 28879,
  "▁dvere": 17546,
  "▁Logg": 47693,
  "孃": 31197,
  "ロー": 38590,
  "خيل": 15589,
  "άγματος": 22607,
  "▁pasada": 57436,
  "▁хүрээ": 6107,
  "CL": 38645,
  "liti": 35385,
  "deb": 42286,
  "ห่าง": 11011,
  "▁Deep": 47023,
  "嚮": 29209,
  "zketa": 13777,
  "टेड": 20439,
  "▁пријател": 5491,
  "▁бүгүн": 4387,
  "inas": 21755,
  "▁cãi": 21688,
  "ŷ": 54695,
  "要去": 56533,
  "池": 39671,
  "馒": 33633,
  "▁buang": 2552,
  "nese": 29110,
  "oz": 42643,
  "穆": 2353,
  "▁Vice": 42376,
  "▁aloqalar": 17453,
  "▁Bud": 37915,
  "▁seconda": 38655,
  "▁Legend": 43825,
  "asztal": 5503,
  "▁Year": 40450,
  "▁Mach": 46243,
  "▁elegant": 34894,
  "▁investor": 39837,
  "蠹": 32908,
  "っていました": 10450,
  "▁principali": 46155,
  "▁Plusieur": 24178,
  "quo": 36186,
  "rav": 34048,
  "▁tokom": 56996,
  "▁Їх": 16891,
  "▁Wong": 6069,
  "▁리뷰": 52075,
  "▁ضمان": 21558,
  "不起": 43302,
  "høgskole": 27404,
  "▁തെറ്റി": 17638,
  "ตอบสนอง": 23247,
  "鋤": 31560,
  "лёт": 3285,
  "瘙": 33532,
  "▁යුත්": 13739,
  "することで": 44800,
  "▁Wood": 39248,
  "களுக்கும்": 9310,
  "租": 36960,
  "xonalar": 21576,
  "bg": 4599,
  "▁panasz": 15276,
  "▁Keh": 43690,
  "▁zadovoljava": 28009,
  "細": 22486,
  "攒": 29361,
  "▁All": 36436,
  "good": 49462,
  "律师": 51106,
  "쿠폰": 19726,
  "ФО": 2482,
  "post": 41611,
  "Lie": 55550,
  "bhre": 11790,
  "▁SO": 14017,
  "▁lib": 34031,
  "为您提供": 21623,
  "▁ремонта": 12632,
  "▁Lanka": 38893,
  "kosa": 716,
  "▁Master": 20011,
  "ades": 6649,
  "風險": 49907,
  "▁(8": 18138,
  "ich": 44720,
  "tag": 49041,
  "▁Mohamed": 47811,
  "▁kan": 22415,
  "мышлен": 343,
  "▁advent": 48774,
  "積": 34657,
  "ਛਾ": 10502,
  "▁adi": 23252,
  "ລ້າງ": 27732,
  "white": 11610,
  "8.00": 56232,
  "ମେଣ୍ଟ": 16746,
  "▁explain": 50251,
  "▁gras": 34908,
  "リング": 51296,
  "▁grip": 39592,
  "윰": 31813,
  "▁CNC": 55161,
  "▁راستای": 11659,
  "潘": 56651,
  "▁اساسي": 17458,
  "นครสวรรค์": 27108,
  "▁mening": 34298,
  "▁Sta": 47769,
  "跟踪": 18663,
  "sahabat": 23999,
  "길": 24379,
  "▁Pənah": 26547,
  "▁aloittaa": 11785,
  "▁чадахгүй": 2910,
  "▁known": 43477,
  "modell": 50643,
  "▁औषधि": 9712,
  "mbala": 52522,
  "点击": 49726,
  "vor": 36220,
  "Οι": 6664,
  "▁Liter": 1202,
  "股份": 54199,
  "▁Saksamaa": 13447,
  "▁kvalitný": 18646,
  "ety": 38376,
  "▁Wort": 44876,
  "▁продолжа": 5803,
  "利用": 44273,
  "▁gelernt": 19564,
  "▁Bilder": 22362,
  "▁fertil": 55706,
  "▁oy": 41144,
  "▁pure": 37405,
  "Na": 41787,
  "▁Orang": 22471,
  "说了": 55979,
  "kasvatus": 3203,
  "◤": 31384,
  "vas": 39820,
  "這些": 5097,
  "▁health": 14578,
  "▁mula": 41929,
  "ջի": 3825,
  "廟": 3312,
  "之间的": 41793,
  "▁Наші": 15455,
  "▁څنګ": 25512,
  "▁բարդ": 18271,
  "▁think": 44101,
  "ERA": 33363,
  "随着": 25525,
  "kryty": 18859,
  "lug": 37782,
  "▁Pale": 47053,
  "/19": 54445,
  "呲": 31838,
  "蔭": 29136,
  "▁waka": 42078,
  "ndre": 44468,
  "Linux": 11948,
  "▁கெ": 4252,
  "▁28": 9097,
  "nakuwa": 18817,
  "▁autonom": 45853,
  "ოვი": 9650,
  "ീം": 18376,
  "Bal": 47297,
  "▁80%": 23271,
  "▁Pa": 8370,
  "lind": 43899,
  "均衡": 15306,
  "譚": 28979,
  "省级": 20226,
  "oma": 54755,
  "▁ανθρώπου": 18307,
  "ସମ୍ପାଦନା": 57194,
  "eller": 10163,
  "tidningen": 6412,
  "卐": 31319,
  "ාධිපති": 12670,
  "▁innskudd": 3809,
  "▁Cara": 45924,
  "▁HI": 38040,
  "題": 42958,
  "▁1912": 47097,
  "끽": 33674,
  "▁okrog": 3327,
  "氙": 32929,
  "樟": 29109,
  "幀": 31367,
  "典型的": 16009,
  "祚": 31688,
  "▁Egypt": 46688,
  "▁Circ": 52017,
  "椀": 33014,
  "▁מקבל": 4739,
  "UYÊN": 26627,
  "▁Nang": 48058,
  "สัดส่วน": 27794,
  "bry": 25083,
  "ilor": 38210,
  "▁Chine": 4613,
  "作物": 19410,
  "▁room": 16515,
  "疮": 30048,
  "广州市": 22358,
  "▁2021": 47534,
  "▁Sunday": 43722,
  "궤": 29279,
  "ແປ": 1402,
  "human": 49163,
  "펌": 24765,
  "▁Barack": 51049,
  "▁Pubblica": 21297,
  "▁대상": 48690,
  "▁Sind": 39530,
  "▁55": 42520,
  "拂": 29665,
  "rp": 1774,
  "▁මූල්": 20475,
  "-2013": 50648,
  "ắ": 33846,
  "1974": 14963,
  "▁Pavi": 1958,
  "作り": 50822,
  "inus": 41052,
  "蚁": 28926,
  "练": 53768,
  "lais": 20504,
  "▁terms": 49051,
  "JANA": 12581,
  "▁Dje": 54688,
  "▁如果": 37925,
  "βερ": 4069,
  "过去了": 19875,
  "▁Kra": 23874,
  "▁Ka": 3444,
  "որս": 20754,
  "▁Geo": 35879,
  "▁Rus": 9372,
  "ITA": 21022,
  "rais": 6976,
  "UNI": 47959,
  "▁Teknisk": 9262,
  "農業": 50533,
  "轩": 23462,
  "▁conveni": 43012,
  "れている": 51658,
  "引发": 50797,
  "😣": 31437,
  "▁свободы": 12749,
  "掌控": 23601,
  "▁നബി": 22020,
  "▁Ryg": 14482,
  "▁buz": 45355,
  "बॉल": 25958,
  "३६": 4786,
  "óban": 684,
  "伊朗": 55638,
  "▁tekur": 883,
  "▁ప్రాంత": 4250,
  "▁also": 35208,
  "▁First": 28393,
  "NW": 19535,
  "iru": 40949,
  "泰": 22344,
  "冢": 31682,
  "▁Delovn": 27769,
  "する際に": 23223,
  "vos": 52452,
  "କ୍ଷା": 14381,
  "휴": 56270,
  "好的": 18922,
  "升级": 45697,
  "MM": 34068,
  "▁Besi": 53891,
  "峨": 29613,
  "dav": 17685,
  "ZN": 48427,
  "靈魂": 20460,
  "▁Vijesti": 7300,
  "⇣": 31409,
  "▁aspect": 40797,
  "▁втория": 10760,
  "现场": 34628,
  "登錄": 23604,
  "rée": 51545,
  "态势": 17027,
  "lls": 40414,
  "elor": 44355,
  "iĝinta": 17086,
  "▁ciekawy": 19442,
  "▁sine": 48139,
  "▁1929": 44427,
  "気がする": 13955,
  "工作人員": 14032,
  "▁Politiker": 15521,
  "▁пальца": 27200,
  "aire": 56106,
  "▁arro": 50238,
  "▁않고": 41476,
  "▁Satu": 34400,
  "▁награду": 19184,
  "模": 34793,
  "뮈": 31966,
  "냠": 30941,
  "夥伴": 4612,
  "尺寸": 51133,
  "▁төменде": 10041,
  "咘": 33497,
  "▁zmene": 16260,
  "iten": 38564,
  "▁Beg": 45380,
  "▁yanğın": 7217,
  "▁used": 4584,
  "čiui": 10972,
  "▁Ribera": 23201,
  "EVA": 45266,
  "▁rus": 51571,
  "▁summa": 35554,
  "64)": 54424,
  "6.3": 22205,
  "39": 55785,
  "▁pili": 23904,
  "▁błąd": 20640,
  "ošais": 20217,
  "vend": 18363,
  "ภาษี": 57107,
  "tech": 22946,
  "be": 38496,
  "▁얼굴": 55871,
  "lon": 42180,
  "男孩": 50109,
  "enco": 48141,
  "ολογίας": 994,
  "ür": 51758,
  "▁ചെന്ന": 13020,
  "不受": 55852,
  ".10.": 480,
  "▁Oscar": 37198,
  "nél": 17437,
  "⇠": 29600,
  "▁Hospital": 34670,
  "┞": 31788,
  "▁Hy": 39233,
  "▁3.3": 52255,
  "तया": 6579,
  "精心": 55596,
  "▁тұрып": 24470,
  "ативни": 798,
  "幄": 33371,
  "▁tiesību": 1728,
  "▁Jaya": 42970,
  "serie": 36904,
  "▁bạch": 18194,
  "дсэн": 5617,
  "EP": 24336,
  "сјед": 1408,
  "RE": 4475,
  "一年": 6562,
  "決定": 17702,
  "რეალ": 12053,
  "吝": 29609,
  "gels": 44600,
  "精選": 3772,
  "▁произнес": 8266,
  "Service": 5556,
  "▁cet": 18405,
  "lö": 19291,
  "szter": 46915,
  "▁NOT": 54014,
  "Mobile": 6479,
  "LIA": 48627,
  "▁indo": 48354,
  "▁ETA": 44231,
  "▁traže": 5395,
  "▁einer": 26035,
  "台南": 52715,
  "▁lance": 50728,
  "▁ଅଞ୍ଚଳରେ": 18161,
  "kha": 3552,
  "▁audio": 18650,
  "争议": 8041,
  "▁populārā": 25818,
  "▁Breaking": 55273,
  "星巴克": 28545,
  "胥": 31750,
  "ündə": 3731,
  "▁Maisha": 19788,
  "cand": 52059,
  "岖": 33504,
  "评价": 43364,
  "▁Modell": 42816,
  "不见": 7439,
  "▁Games": 37432,
  "蹋": 30575,
  "sein": 42593,
  "▁Pir": 57422,
  "eszköz": 13584,
  "reste": 50453,
  "转型升级": 27889,
  "var": 21343,
  "umus": 38976,
  "任務": 53940,
  "▁تكوين": 24546,
  "▁Waxay": 1164,
  "▁Cei": 48741,
  "▁culori": 1480,
  "▁tingin": 11716,
  "▁protein": 24372,
  "▁لكنه": 10993,
  "▁Wei": 47474,
  "▁Lig": 34500,
  "▁Honor": 45784,
  "▁Радован": 27201,
  "肌肉": 3263,
  "陕": 29912,
  "▁Mistefa": 28440,
  "ažymė": 19153,
  "대출": 50386,
  "▁csaj": 21821,
  "▁Tabi": 53238,
  "▁huomaa": 4552,
  "▁Harry": 23661,
  "▁Día": 38665,
  "PS": 55061,
  "▁105": 24209,
  "今天": 50594,
  "ables": 21591,
  "▁Hero": 45164,
  "▁Barcelo": 55203,
  "進一步": 47135,
  "▁sci": 7568,
  "▁העוסק": 25473,
  "想法": 50935,
  "kie": 54791,
  "ಾಗಿದ್ದು": 16069,
  "機會": 42888,
  "dera": 25393,
  "▁nettbrett": 25470,
  "▁gospod": 1325,
  "පී": 4365,
  "orno": 5596,
  "rão": 42606,
  "▁Maca": 56082,
  "荼": 31068,
  "нновация": 27674,
  "▁Ελληνική": 9612,
  "אָנ": 16483,
  "dha": 43738,
  "prav": 51332,
  "▁크": 44688,
  "▁Bag": 20990,
  "別人": 45817,
  "溧": 31576,
  "▁බ්ලොග": 26735,
  "▁હાઇ": 21353,
  "可以": 10622,
  "▁navegador": 469,
  "醒": 38066,
  "诞": 33826,
  "▁jobben": 9355,
  "mping": 41049,
  "▁matin": 38523,
  "▁DOS": 53975,
  "เพียงแค่": 9010,
  "▁целокупн": 23478,
  "보험": 43681,
  "溏": 33294,
  "▁MAX": 53631,
  "LI": 2403,
  "还": 36375,
  "虎": 38478,
  "薺": 33063,
  "ತೆಯನ್ನು": 15954,
  "失敗": 48422,
  "sie": 38200,
  "š": 51959,
  "▁cliché": 25689,
  "ទូទៅ": 15420,
  "bók": 54049,
  "▁ब्रेक": 22352,
  "▁1904": 56714,
  "呋": 33302,
  "腦": 40493,
  "privat": 13775,
  "有效的": 45074,
  "鈐": 32560,
  "▁Educa": 45128,
  "▁ਕੈਦ": 25769,
  "slúži": 18101,
  "❣": 30205,
  "当サイト": 18883,
  "츰": 32251,
  "〰": 29686,
  "信赖": 23316,
  "interior": 19110,
  "试": 34867,
  "iausia": 8515,
  "eno": 23845,
  "tuar": 954,
  "▁섹스": 3366,
  "▁కింద": 2103,
  "儀": 46803,
  "▁financira": 1190,
  "▁jartzea": 24495,
  "<s_price>": 57532,
  "mm": 26688,
  "bog": 33890,
  "bw": 55835,
  "髦": 33745,
  "▁Utrecht": 55483,
  "哼": 14922,
  "догу": 10565,
  "▁Babu": 56240,
  "▁2002": 45290,
  "氤": 33243,
  "чести": 3920,
  "▁firm": 2684,
  "沅": 31131,
  "ფოთ": 1894,
  "×": 17521,
  "▁министри": 154,
  "▁8.": 36649,
  "就在": 35826,
  "▁eyes": 41712,
  "〖": 18398,
  "▁naviga": 44937,
  "went": 50649,
  "펭": 33571,
  "▁दाखल": 1255,
  "ተለያዩ": 25845,
  "登陆": 17103,
  "灵魂": 15307,
  "▁carico": 5571,
  "í": 40582,
  "φ": 41762,
  "▁determina": 34776,
  "▁Park": 43712,
  "▁oportunitat": 8708,
  "▁정책": 45569,
  "일까지": 53050,
  "▁بوي": 9470,
  "▁שירים": 20999,
  "iel": 4787,
  "▁tempo": 24967,
  "聞く": 4735,
  "qiniso": 15865,
  "▁unsur": 43522,
  "▁tihti": 14337,
  "Su": 10122,
  "▁UU": 55440,
  "▁ENTRE": 22640,
  "伴": 42591,
  "嚢": 31713,
  "櫟": 32761,
  "▁Some": 36345,
  "▁propo": 50918,
  "▁listen": 41163,
  "▁판": 48687,
  "luck": 14416,
  "濺": 30638,
  "โดยไม่": 9732,
  "": 28882,
  "ISU": 2253,
  "▁ຊາ": 3924,
  "วุฒิ": 6406,
  "남양주": 27733,
  "电影": 11444,
  "▁pho": 43962,
  "cted": 54863,
  "▁XXL": 15952,
  "扮演": 54731,
  "gali": 34906,
  "▁grands": 48993,
  "▁nave": 43258,
  "▁jälgi": 3530,
  "▁కాల్": 6048,
  "最": 18188,
  "▁manbalar": 26959,
  "Korisničko": 13686,
  "án": 15482,
  "▁Dollar": 53125,
  "▁punct": 37197,
  "ometr": 54288,
  "áng": 48453,
  "amaz": 44292,
  "仓": 8718,
  "ffi": 30240,
  "ori": 39315,
  "lus": 45463,
  "vu": 17848,
  "lê": 24509,
  "▁वास्तव": 11093,
  "onin": 41324,
  "▁Health": 20397,
  "▁Md": 46458,
  "▁चलते": 6547,
  "XC": 50434,
  "▁ražošana": 6882,
  "▁Gallery": 53466,
  "强调": 39897,
  "▁gjet": 580,
  "▁realiz": 11544,
  "vel": 34229,
  "▁ಪೀ": 26836,
  "vjeçare": 57487,
  "Калифорни": 13904,
  "▁imagina": 40324,
  "sila": 39099,
  "▁ആവശ്യപ്പെട്ട": 15250,
  "징": 48270,
  "▁Land": 47904,
  "▁comuna": 1145,
  "▁Dhe": 27121,
  "她": 15885,
  "ΣΕΙΣ": 18451,
  "▁Pod": 44307,
  "▁low": 34719,
  "▁nia": 43407,
  "궐": 33707,
  "elle": 24146,
  "扛": 17754,
  "א": 35059,
  "▁troj": 40967,
  "써": 14983,
  "▁Ушул": 6441,
  "vies": 42809,
  "andraikitra": 22853,
  "▁immobili": 52115,
  "也不": 9044,
  "外国人": 3194,
  "▁vrijednost": 10278,
  "▁కాగా": 15684,
  "away": 49923,
  "▁Quest": 54494,
  "▁ਸਹਿ": 15884,
  "▁rođendan": 21476,
  "▁Bravo": 53566,
  "钒": 32205,
  "billede": 5144,
  "▁επιστροφή": 12642,
  "အနေနဲ့": 14217,
  "רשטאג": 3314,
  "stern": 42611,
  "නූ": 24059,
  "Den": 44397,
  "dio": 45101,
  "ከፈተ": 28535,
  "▁Regional": 35191,
  "stokk": 23075,
  "▁Anti": 53099,
  "โค้ง": 26196,
  "▁Tumi": 3641,
  "▁lift": 46360,
  "834": 19758,
  "LJ": 50895,
  "ebe": 44115,
  "▁коледж": 24210,
  "蜂蜜": 21038,
  "figura": 5868,
  "师": 16319,
  "보건": 14590,
  "rú": 4509,
  "▁related": 46965,
  "▁منهن": 7020,
  "loom": 54054,
  "▁더": 46567,
  "▁የትምህርት": 12792,
  "感": 38144,
  "▁being": 52264,
  "▁Eta": 34081,
  "▁nation": 47671,
  "▁هیات": 57356,
  "పాటి": 7357,
  "▁beliebt": 24585,
  "탔": 33617,
  "途径": 7467,
  "▁있": 34976,
  "切って": 22509,
  "▁Kolor": 9161,
  "▁bông": 14383,
  "▁pal": 2991,
  "▁robe": 4229,
  "成功的": 52593,
  "aide": 40118,
  "▁літак": 12987,
  "into": 24840,
  "▁몸": 40943,
  "▁prvky": 13629,
  "cky": 33915,
  "▁Audi": 24985,
  "行业": 52756,
  "ทริป": 6923,
  "▁modal": 35043,
  "したら": 40892,
  "等到": 1170,
  "ghan": 52227,
  "▁absolut": 11000,
  "product": 45486,
  "▁polis": 8582,
  "▁muude": 10951,
  "缘": 51411,
  "セ": 34303,
  "uru": 7199,
  "就会": 24924,
  "钦": 28804,
  "▁пошуку": 4935,
  "▁won": 28089,
  "▁comportamiento": 12121,
  "bhar": 40592,
  "landa": 27675,
  "▁chips": 2725,
  "utus": 21563,
  "▁qəlb": 25680,
  "落实": 41721,
  "▁២០០": 19536,
  "xan": 14142,
  "พัด": 22212,
  "胃": 43004,
  "的東西": 54714,
  "opis": 49900,
  "▁Aile": 55630,
  "▁Magi": 12078,
  "▁Loft": 20565,
  "▁Cumhaichean": 21590,
  "រីក": 15373,
  "▁lang": 20895,
  "▁88": 9898,
  "▁AP": 15966,
  "▁스타": 56794,
  "钠": 30386,
  "▁Ticket": 52253,
  "▁الشيطان": 24618,
  "Sa": 44452,
  "基於": 16221,
  "gabung": 4977,
  "▁Meski": 2216,
  "lly": 5301,
  "』": 42369,
  "▁과": 42560,
  "▁kroner": 34401,
  "ారావు": 15351,
  "人妻": 19234,
  "▁skills": 45992,
  "lag": 38350,
  "ᆞ": 46356,
  "itan": 17876,
  "بقي": 11521,
  "▁ክን": 21978,
  "査定": 52202,
  "ealaí": 4151,
  "口味": 56732,
  "▁მესამე": 2411,
  "?": 36209,
  "錙": 32782,
  "imento": 24333,
  "交流": 989,
  "▁سوء": 2509,
  "▁ከወ": 11525,
  "xi": 43408,
  "jec": 51051,
  "舫": 31516,
  "▁Wen": 47618,
  "▁кажуць": 20639,
  "▁განვითარება": 4971,
  "いた": 54733,
  "▁ሲሆን፣": 19313,
  "▁Cipta": 23199,
  "▁str": 51321,
  "完整的": 54068,
  "是可以": 6564,
  "▁varasema": 20940,
  "办法": 35948,
  "ダウンロード": 459,
  "▁KK": 45275,
  "pis": 42969,
  "λπ": 16506,
  "탄": 39292,
  "▁가정": 57164,
  "werk": 51580,
  "ppy": 48171,
  "▁стоял": 835,
  "社交": 48271,
  "▁Bayern": 43919,
  "▁Ann": 37911,
  "据": 25488,
  "myyjä": 21778,
  "▁கிட": 20277,
  "▁معلوماتو": 14069,
  "普": 14140,
  "өрдө": 17282,
  "バンド": 22668,
  "▁Archive": 56811,
  "▁инфекции": 21639,
  "ヾ": 30444,
  "레": 6901,
  "▁detalle": 6739,
  "▁Lever": 55313,
  "▁судом": 1943,
  "最新": 15559,
  "致力于": 53935,
  "人民代表大会": 27161,
  "👩": 30079,
  "덫": 33281,
  "森林": 42723,
  "ስል": 9572,
  "起こ": 46180,
  "▁voluntari": 42350,
  "▁Hö": 45043,
  "▁Erholung": 28059,
  "Ǿ": 32816,
  "叠": 22611,
  "laddning": 18562,
  "ion": 18811,
  "摟": 31402,
  "▁(100": 56242,
  "стил": 12828,
  "▁공": 55019,
  "БС": 3605,
  "▁března": 21369,
  "razi": 32569,
  "૧૪": 15139,
  "eket": 47456,
  "Man": 6678,
  "乞": 28639,
  "kade": 26502,
  "▁Iba": 53348,
  "▁Aufwand": 19839,
  "vill": 1246,
  "eur": 51433,
  "▁Wis": 50554,
  "ffo": 55608,
  "▁ਆਖ": 3230,
  "HAR": 46778,
  "▁jiraan": 2628,
  "▁замисли": 13320,
  "": 31800,
  "▁100-": 38710,
  "iat": 35533,
  "kondu": 15136,
  "▁Λευκ": 23642,
  "▁espazos": 11386,
  "黏": 5618,
  "▁ඉදිරියේදී": 26585,
  "▁гейм": 22744,
  "▁পায়": 5835,
  "जनक": 1071,
  "▁libre": 3838,
  "日々": 55456,
  "▁višji": 25148,
  "能夠": 19251,
  "taseme": 14720,
  "石油": 46261,
  "pyr": 54743,
  "gee": 53595,
  "らせる": 27365,
  "精靈": 26130,
  "富裕": 26313,
  "▁Amsterdam": 24486,
  "iske": 8077,
  "▁xeyli": 13832,
  "▁poem": 53746,
  "▁Universit": 51533,
  "フィ": 46765,
  "▁Inte": 35873,
  "饕": 29820,
  "ence": 48088,
  "pia": 6172,
  "elt": 48360,
  "▁super": 14095,
  "▁articul": 17157,
  "▁мовою": 5061,
  "荟": 30953,
  "▁إنها": 6246,
  "▁alt": 34379,
  "▁નોટ": 16187,
  "▁Thi": 21471,
  "▁Cadw": 22827,
  "▁Oo": 960,
  "Time": 49243,
  "Online": 50830,
  "▁hai": 8245,
  "▁4000": 37366,
  "▁Saman": 1927,
  "Ni": 10930,
  "▁Поради": 738,
  "▁tras": 45693,
  "照": 54878,
  "GN": 54585,
  "绷": 29607,
  "▁Yo": 49076,
  "consegui": 20544,
  "▁hinsichtlich": 25821,
  "絮": 28973,
  "William": 25897,
  "▁ھەممە": 24931,
  "▁vânzare": 24092,
  "kler": 35170,
  "▁tutvust": 6727,
  "▁तद्": 6363,
  "▁vegetal": 1271,
  "▁menü": 1622,
  "ಮಾಡ": 15620,
  "▁formal": 27223,
  "▁ਮਾਲ": 18941,
  "▁beskikber": 21837,
  "ằm": 8959,
  "すべて": 52587,
  "▁pemuda": 2814,
  "▁Diet": 55367,
  "降低": 33184,
  "εστε": 17515,
  "虽然": 4075,
  "▁extra": 40167,
  "▁multo": 7524,
  "ዎችና": 13440,
  "發布": 55385,
  "росли": 7849,
  "คุณแม่": 15055,
  "આત": 19975,
  "▁ama": 33953,
  "spec": 15633,
  "▁ajatus": 10272,
  "▁realizaci": 19710,
  "희": 27650,
  "emos": 57043,
  "▁Barri": 50272,
  "▁missed": 13298,
  "利": 39245,
  "▁büdcə": 6798,
  "▁district": 973,
  "合适": 22182,
  "usa": 4271,
  "▁Integr": 45560,
  "▁Rigtig": 24053,
  "▁இவை": 15033,
  "▁grandi": 25940,
  "当たり前": 13035,
  "軒": 9558,
  "▁இந்தக்": 20450,
  "▁chr": 17484,
  "ในเวลา": 17176,
  "▁များ": 66,
  "▁design": 40706,
  "sulta": 50978,
  "▁Piedāvā": 20087,
  "che": 10382,
  "ónica": 52981,
  "憑": 52811,
  "นครราชสีมา": 18752,
  "💗": 29564,
  "▁ambiti": 56403,
  "▁background": 51207,
  "▁Fra": 51779,
  "rung": 20193,
  "▁ਘਟ": 26505,
  "杳": 33370,
  "▁serbe": 5684,
  "深入": 25569,
  "疼": 51027,
  "መግባባት": 25809,
  "的時候": 21720,
  "nt": 47996,
  "▁hij": 45745,
  "▁militaire": 7147,
  "复": 35127,
  "感染": 39048,
  "前に": 22709,
  "▁finance": 52878,
  "djur": 5708,
  "Var": 52696,
  "tivní": 8606,
  "▁plug": 51114,
  "▁fle": 19686,
  "bitur": 48796,
  "▁Salah": 36424,
  "慷": 29234,
  "kártya": 12585,
  "▁Přihlásit": 11697,
  "MR": 43637,
  "файл": 20744,
  "▁Total": 37302,
  "▁administrative": 54022,
  "图书馆": 14126,
  "淖": 33484,
  "▁Meil": 9669,
  "▁167": 54096,
  "داشت": 4301,
  "骐": 31885,
  "stöðum": 11145,
  "泡沫": 23834,
  "ENS": 40477,
  "သည္ဟု": 25888,
  "ເຂັ້ມ": 28333,
  "පල්": 8263,
  "▁Happy": 36785,
  "原住民": 17333,
  "▁Divi": 51094,
  "優惠": 25165,
  "埸": 31467,
  "▁dro": 15836,
  "▁From": 35067,
  "նայ": 3382,
  "kani": 44831,
  "▁اختصاصی": 12878,
  "▁현장": 51222,
  "同一": 52033,
  "▁משפטי": 6515,
  "▁Saka": 56386,
  "▁લખે": 26840,
  "pain": 50684,
  "贍": 33440,
  "prot": 19420,
  "dda": 12962,
  "ed": 35647,
  "▁Ath": 40764,
  "▁мужчина": 3683,
  "▁Too": 45007,
  "▁bogate": 8149,
  "▁Rada": 56231,
  "▁최근": 36686,
  "▁Konsum": 8034,
  "UTI": 55761,
  "▁ski": 49691,
  "악": 42881,
  "chas": 35296,
  "wol": 34001,
  "麺": 29087,
  "緊張": 53339,
  "▁tribut": 48861,
  "▁Сары": 18850,
  "▁rin": 43861,
  "嚀": 33613,
  "▁Neuro": 1944,
  "▁valóság": 3331,
  "taire": 41072,
  "謗": 29765,
  "▁Bei": 50629,
  "婴": 21575,
  "▁kind": 53712,
  "いき": 48607,
  "▁Oru": 42226,
  "▁feria": 2171,
  "▁Ova": 42221,
  "వన్": 8214,
  "▁sød": 4835,
  "柔": 41260,
  "▁cognosc": 9062,
  "▁radiator": 18324,
  "▁prevzel": 23664,
  "belli": 16842,
  "▁lõpuks": 2060,
  "▁xay": 3721,
  "▁الجوية": 13068,
  "▁castelo": 25894,
  "ities": 36233,
  "사항": 55390,
  "loppet": 11526,
  "▁오르": 17922,
  "▁hur": 38044,
  "在国内": 7151,
  "寧": 48635,
  "лёг": 15866,
  "besaran": 17018,
  "及び": 49131,
  "▁Канада": 6098,
  "窦": 29898,
  "▁വ്യാപക": 28360,
  "▁longer": 43542,
  "쿡": 30147,
  "fähr": 2306,
  "▁brig": 42917,
  "porte": 50530,
  "金額": 40893,
  "▁entro": 42819,
  "▁raja": 24895,
  "▁今天": 46570,
  "▁gilda": 24565,
  "蚊": 12029,
  "샾": 31960,
  "6%": 5527,
  "▁zgjedh": 4504,
  "▁Hamid": 6893,
  "槽": 7403,
  "▁rodičov": 10611,
  "▁Lur": 56650,
  "▁observ": 48142,
  "vidas": 4516,
  "▁Pem": 28684,
  "rati": 16446,
  "▁Sam": 37205,
  "개월": 42297,
  "usta": 44222,
  "▁បន្ថែម": 3647,
  "뻗": 29882,
  "▁-": 20220,
  "▁dokumente": 1185,
  "겨": 28246,
  "棕": 21983,
  "NO": 53744,
  "女兒": 54925,
  "奇": 55923,
  "▁Nokia": 34233,
  "System": 53354,
  "▁Emil": 44764,
  "טיפוח": 27836,
  "▁MR": 49060,
  "text": 26809,
  "▁piisavalt": 10328,
  "lho": 34494,
  "▁metodik": 11539,
  "▁oli": 4865,
  "▁Sper": 40913,
  "自転車": 18661,
  "acte": 45854,
  "鎬": 31164,
  "▁Tier": 46082,
  "▁disso": 34501,
  "圖書館": 8744,
  "buy": 53963,
  "澹": 32170,
  "緻": 18818,
  "玹": 33076,
  "Air": 46208,
  "▁Mela": 42193,
  "ებელ": 6741,
  "▁69": 4883,
  "نۆۋەت": 28642,
  "▁marknaden": 8106,
  "Ā": 33917,
  "▁Mallorca": 53939,
  "▁AB": 3373,
  "ડીયા": 25172,
  "ሕይወ": 11088,
  "복지": 52359,
  "kawa": 45431,
  "ユーザー": 45223,
  "短": 326,
  "袜": 27444,
  "▁Նրանք": 8407,
  "▁تمثل": 18606,
  "QQ": 48122,
  "warte": 44565,
  "state": 46633,
  "圍": 44544,
  "▁Na": 37799,
  "地下鉄": 28204,
  "躊": 33718,
  "▁giving": 48866,
  "▁αγροτικ": 24524,
  "▁Natur": 12276,
  "▁pedal": 56277,
  "むしろ": 20316,
  "▁dimulai": 1957,
  "窠": 32412,
  "▁apmierināt": 23020,
  "▁άρθρου": 17934,
  "νουμε": 3790,
  "に入った": 17633,
  "ทั่วไทย": 16667,
  "♀": 19904,
  "▁gennemføre": 16658,
  "▁Nat": 48900,
  "bij": 24377,
  "Hel": 46449,
  "79": 26088,
  "risti": 39527,
  "了他": 52717,
  "ntang": 40223,
  "HO": 18081,
  "▁pièce": 57026,
  "bring": 39816,
  "》,": 24763,
  "▁lecture": 46075,
  "▁Human": 35061,
  "俘": 29247,
  "▁toilet": 47669,
  "▁23-": 37570,
  "▁2-1": 45759,
  "質量": 50219,
  "río": 6074,
  "▁діалог": 25293,
  "IRA": 40379,
  "เซ็กซี่": 22453,
  "▁pracował": 24938,
  "▁uğurla": 10740,
  "▁federa": 38772,
  "ורג": 843,
  "关键": 40276,
  "▁combine": 49269,
  "▁페이지": 50470,
  "▁turpmāk": 10334,
  "简": 41316,
  "▁Vien": 36553,
  "▁8-": 12036,
  "已經": 56649,
  "余": 2945,
  "ذلك": 12809,
  "事实上": 55803,
  "▁Det": 45458,
  "▁Слов": 16096,
  "徬": 33527,
  "▁Данил": 13185,
  "絃": 31145,
  "prostred": 7736,
  "▁கோவை": 23273,
  "fah": 37234,
  "▁Und": 44663,
  "ashi": 35246,
  "のため": 51254,
  "▁taju": 6157,
  "牘": 32587,
  "嗖": 31114,
  "▁deri": 14959,
  "▁commemora": 13915,
  "▁transmite": 57349,
  "美麗": 56384,
  "┅": 31003,
  "箇": 30306,
  "éad": 41270,
  "▁liikunta": 6236,
  "▁الحساب": 18919,
  "▁വിശേഷ": 11280,
  "▁Fro": 39965,
  "俣": 31420,
  "▁análisis": 57240,
  "ꨓ": 32248,
  "llis": 21726,
  "▁háirithe": 13552,
  "主体": 52912,
  "▁pin": 47790,
  "oper": 40339,
  "sku": 34238,
  "킹": 41337,
  "ドア": 21098,
  "▁impressão": 24724,
  "▁Swa": 40635,
  "▁pane": 35133,
  "动": 50562,
  "▁받아": 44507,
  "学者": 51968,
  "▁canta": 51618,
  "▁ମୋଦିଙ୍କ": 21805,
  "▁जिल्लाका": 18285,
  "대는": 18209,
  "υ": 18124,
  "▁elite": 87,
  "上で": 42983,
  "▁tuolla": 1490,
  "laps": 56511,
  "рошен": 16563,
  "▁Fleisch": 15695,
  "UTA": 49282,
  "▁EL": 56930,
  "sip": 35917,
  "巩固": 22291,
  "±": 38987,
  "chin": 48233,
  "▁тече": 5660,
  "▁Hur": 4725,
  "▁Сапар": 10997,
  "▁Lern": 50840,
  "這種": 34381,
  "▁berdin": 9169,
  "粟": 29943,
  "▁fai": 16102,
  "ဟော": 22882,
  "▁Fai": 56377,
  "mo": 40644,
  "hef": 2150,
  "فيصلي": 26249,
  "▁Tai": 46505,
  "▁Devi": 51690,
  "▁South": 33906,
  "naamini": 18224,
  "▁atvinnulíf": 28220,
  "έως": 23977,
  "▁violence": 56306,
  "凡": 36177,
  "ούπολη": 16452,
  "▁Aurora": 10596,
  "விட்டால்": 18069,
  "▁Тада": 18856,
  "▁blogger": 25503,
  "▁Աստծո": 27448,
  "սե": 11619,
  "డర్": 4548,
  "тааны": 9103,
  "▁heel": 54775,
  "▁pirkimai": 27412,
  "ifique": 54652,
  "▁കണ്ണൂര": 27376,
  "▁Pêş": 17880,
  "音楽": 47224,
  "▁poster": 39868,
  "bl": 54985,
  "▁medvirke": 20824,
  "AMOS": 21629,
  "▁උදා": 11275,
  "erna": 41936,
  "▁كىشىلىك": 25543,
  "只有": 49817,
  "▁Newsletter": 44681,
  "▁예약": 39968,
  "刀": 34765,
  "▁seal": 35315,
  "sitter": 10954,
  "翘": 29324,
  "роид": 2493,
  "ip": 37495,
  "तिष्ठ": 23831,
  "搐": 33587,
  "▁సమయం": 8056,
  "ասեր": 21858,
  "坚": 50338,
  "glia": 31580,
  "yun": 22913,
  "▁union": 49203,
  "ERS": 47157,
  "▁seçenekleri": 10764,
  "call": 53748,
  "herr": 46025,
  "چىلار": 11389,
  ":49": 37784,
  "nad": 55363,
  "披露": 53697,
  "早い": 7749,
  "▁Lehet": 6423,
  "▁jarri": 41087,
  "▁Bunlar": 172,
  "निमित्त": 9320,
  "窳": 32630,
  "一部": 37838,
  "以上的": 47889,
  ":01": 23882,
  "▁Ulu": 53018,
  "▁powinny": 45,
  "사업": 40664,
  "的故事": 39191,
  "fet": 35566,
  "▁Uganda": 56598,
  "6,0": 19946,
  "▁қатыс": 346,
  "pál": 41,
  "▁austral": 50296,
  "跑": 4211,
  "だということ": 27017,
  "▁особливості": 5955,
  "posto": 38238,
  "els": 11481,
  "liner": 52114,
  "▁사건": 52205,
  "xt": 35462,
  "本来": 42396,
  "劑": 44296,
  "▁poté": 7585,
  "▁migra": 39434,
  "▁Read": 42199,
  "▁љуб": 2270,
  "▁Fest": 18840,
  "▁kilogram": 39219,
  "▁Sabi": 37896,
  "▁Germania": 41782,
  "▁Tour": 3399,
  "lazi": 43120,
  "▁ордуна": 15570,
  "міністр": 1420,
  "蛙": 26044,
  "毕业生": 56052,
  "칡": 32669,
  "儋": 33320,
  "▁Giu": 50322,
  "حسين": 10748,
  "▁довго": 4060,
  "확": 44635,
  "▁فلز": 14885,
  "▁Khóa": 27236,
  "LEV": 8967,
  "我不": 44731,
  "侥": 29889,
  "▁onlardan": 10187,
  "슴": 18003,
  "fuso": 20632,
  "/24": 48464,
  "▁日本": 37677,
  "▁food": 12757,
  "▁1958": 40481,
  "▁გუნდი": 10753,
  "▁calcul": 41219,
  "☢": 30493,
  "pore": 40003,
  "▁bilir": 44499,
  "สัตว์เลี้ยง": 19299,
  "了很多": 42705,
  "웩": 32666,
  "▁prosper": 51806,
  "▁pasti": 3792,
  "▁проценти": 13514,
  "trus": 315,
  "▁blas": 56885,
  "▁1991": 7207,
  "崙": 29780,
  "▁cult": 45860,
  "ej": 8192,
  "графічн": 325,
  "nü": 34578,
  "▁wait": 39714,
  "▁окончания": 14302,
  "zimi": 44390,
  "tika": 52721,
  "▁köçürül": 26472,
  "▁Hoc": 45921,
  "▁conform": 21907,
  "▁anlattı": 16660,
  "抵抗": 7289,
  "팥": 30416,
  "▁gondol": 38932,
  "▁වුවත්": 12644,
  "▁Chelsea": 41120,
  "▁augu": 51291,
  "/2": 6215,
  "rörelsen": 25621,
  "▁156": 50206,
  "▁принципа": 11428,
  "之日起": 20182,
  "人に": 40172,
  "릎": 29143,
  "▁ideo": 42209,
  "ອ່ານ": 10726,
  "пес": 7958,
  "plod": 18388,
  "折扣": 1285,
  "/13": 43135,
  "以及": 35648,
  "哧": 30919,
  "塞": 27508,
  "聲": 13687,
  "▁dame": 36150,
  "兒童": 39687,
  "jø": 38913,
  "雖": 52966,
  "▁القادر": 15983,
  "лэж": 3802,
  "ІЯ": 9215,
  "▁fytyrë": 11559,
  "nza": 53360,
  "▁detailed": 19342,
  "ღერ": 8507,
  "明白": 39555,
  "上线": 19026,
  "▁کیجیے": 14513,
  "▁fide": 55637,
  "klī": 8177,
  "▁Bot": 27996,
  "▁헤어": 22323,
  "▁അടിച്ച": 21341,
  "▁pravico": 6855,
  "▁Liber": 23554,
  "▁800": 51022,
  "杖": 28901,
  "嗟": 32181,
  "附": 34973,
  "▁getting": 23742,
  "▁skończy": 12252,
  "▁protokoll": 12066,
  "၀ါး": 22016,
  "嗷": 30405,
  "öpp": 6087,
  "▁conclusion": 55776,
  "客房": 50161,
  "regi": 42664,
  "মিল": 22187,
  "▁کنيد": 24720,
  "成績": 48083,
  "တာကို": 8787,
  "霉": 20693,
  "▁gets": 46856,
  "ТРИ": 18136,
  "توج": 5521,
  "▁حقوقی": 2970,
  "铨": 32613,
  "magazin": 8904,
  "orienta": 9752,
  "▁Conta": 37629,
  "สาขา": 4385,
  "▁저는": 48106,
  "▁ជួប": 866,
  "稅": 34836,
  "▁8%": 56354,
  "埚": 33187,
  "▁Uy": 45553,
  "▁개인정보": 42472,
  "▁pela": 36468,
  "藩": 26609,
  "▁Port": 9279,
  "钜": 31216,
  "es": 54630,
  "리스트": 10204,
  "ल्यास": 2229,
  "严峻": 26522,
  "▁függetlenül": 22007,
  "▁danger": 51333,
  "▁phr": 49134,
  "日电": 44587,
  "නාව": 13423,
  "求め": 45833,
  "▁коюу": 15285,
  "▁emp": 22501,
  "ún": 14314,
  "▁χ": 1374,
  "พระเจ้า": 8625,
  "wig": 39923,
  "▁Consulting": 11820,
  "▁parto": 37617,
  "▁nec": 40519,
  "就知道": 11765,
  "おっしゃ": 27688,
  "power": 47048,
  "▁2004": 42379,
  "뒹": 33327,
  "urta": 49560,
  "725": 20033,
  "sione": 11956,
  "的战略": 14342,
  "▁דמ": 13540,
  "ordina": 40704,
  "dina": 1748,
  "▁Ça": 34185,
  "▁культура": 2020,
  "快速": 14924,
  "▁оприлюдн": 12980,
  "abe": 37593,
  "▁жау": 767,
  "4000": 48646,
  "MANI": 6810,
  "▁shooting": 14537,
  "社会": 41254,
  "▁погодн": 17692,
  "▁pirmąjį": 27818,
  "遛": 30556,
  "ndang": 40688,
  "▁konsil": 18805,
  "▁문": 35009,
  "ril": 13235,
  "翔": 55024,
  "▁compa": 50718,
  "伤": 18122,
  "kron": 47424,
  "깰": 33196,
  "R": 1338,
  "▁기능": 43684,
  "type": 43306,
  "违": 2743,
  "▁Sache": 50455,
  "圭": 23596,
  "滴": 51485,
  "険": 33838,
  "國內": 41288,
  "baptis": 8762,
  "▁설치": 42266,
  "▁Ee": 36555,
  "因为": 41891,
  "▁давхар": 9071,
  "持": 12411,
  "주": 34568,
  "žvaigžd": 27157,
  "▁interesser": 7255,
  "ELL": 44910,
  "gast": 52793,
  "▁ilmasto": 8015,
  "▁زمن": 9645,
  "濕": 50341,
  "▁прочие": 24552,
  "▁felmérés": 18757,
  "遭到": 56467,
  "پاکستان": 3310,
  "▁times": 22130,
  "▁самиот": 11783,
  "▁marin": 51122,
  "▁error": 19221,
  "投入": 27869,
  "的就是": 48350,
  "哦": 37785,
  "▁పైన": 13593,
  "譬": 33765,
  "cando": 52718,
  "▁event": 21578,
  "czyn": 40190,
  "attend": 48910,
  "altra": 35071,
  "اجتماع": 16572,
  "cule": 50844,
  "▁हवाई": 3982,
  "▁rei": 3865,
  "產品": 51482,
  "ၤ": 3100,
  "仝": 32265,
  "▁Né": 43351,
  "ഭ്": 13889,
  "gid": 43784,
  "▁arab": 35483,
  "intérieur": 2527,
  "▁chocolat": 15754,
  "llu": 15367,
  "ΩΣ": 4218,
  "▁уживо": 57053,
  "IX": 24683,
  "öv": 14864,
  "▁상황": 48053,
  "UB": 36733,
  "他表示": 8358,
  "▁오": 50985,
  "▁싱가포르": 28161,
  "โชค": 8730,
  "火車": 21159,
  "▁huolimatta": 2939,
  "▁lien": 43854,
  "▁فروری": 17054,
  "▁sexy": 17128,
  "▁account": 12848,
  "pont": 36798,
  "UTC": 41625,
  "▁auf": 47513,
  "▁astoņ": 18141,
  "▁irrita": 49964,
  "128": 52675,
  "優化": 14004,
  "▁Hz": 43048,
  "▁Διά": 5808,
  "▁parking": 40716,
  "▁ictimaiyyət": 6296,
  "譴": 30187,
  "ibu": 34115,
  "电视": 39244,
  "覆盖": 51838,
  "▁PRI": 35761,
  "옮": 33809,
  "ved": 40007,
  "▁slo": 33930,
  "▁cogita": 5869,
  "水平": 8262,
  "▁Kau": 15262,
  "▁54": 54861,
  "යෝග": 8511,
  "лардан": 850,
  "▁impression": 42708,
  "UJI": 7847,
  "ittelu": 2265,
  "▁所以": 48856,
  "▁mieszkania": 4256,
  "weise": 41640,
  "▁펼쳐": 17767,
  "门": 47251,
  "▁fora": 36125,
  "▁benötigen": 5843,
  "였": 49108,
  "▁цэнтры": 11379,
  "▁Ud": 1162,
  "馗": 31884,
  "▉": 32797,
  "nika": 36425,
  "shib": 1260,
  "šou": 56976,
  "▁całą": 2219,
  "▁team": 49750,
  "max": 28534,
  "▁Csaba": 21393,
  "ுவார்": 26229,
  "▁Că": 47154,
  "lad": 48072,
  "▁ovo": 15838,
  "唇": 54687,
  "▁ринков": 21931,
  "下さい": 29761,
  "ulin": 44032,
  "免费": 37766,
  "▁unutarnji": 26715,
  "▁68": 5173,
  "▁projesi": 2289,
  "全部": 13784,
  "并不": 19845,
  "▁mamlakatimiz": 20593,
  "t": 16191,
  "kabidhi": 57346,
  "ราชบุรี": 20794,
  "▁Hi": 34498,
  "tors": 25865,
  "▁Ermittlung": 28118,
  "慌": 1196,
  "▁literally": 25257,
  "▁criminoso": 28121,
  "知らない": 55922,
  "▁Sağ": 4012,
  "▁атасы": 14766,
  "▁place": 38415,
  "glie": 38145,
  "etan": 38380,
  "▁rendi": 53122,
  "另一方面": 49811,
  "▁fárad": 20213,
  "電子書籍": 20622,
  "ymo": 38018,
  "を手に入れ": 19791,
  "alcalde": 4754,
  "▁eröffnet": 17035,
  "芸術": 22845,
  "▁indicate": 4410,
  "▁개": 15245,
  "伝": 43175,
  "အစ": 57131,
  "咗": 26925,
  "▁veto": 4699,
  "▁fish": 48393,
  "漫": 42285,
  "▁جريدة": 25202,
  "kur": 35698,
  "▁Contact": 34880,
  "▁spin": 34198,
  "▁dəmir": 17070,
  "메": 37990,
  "āta": 41125,
  "▁boom": 51371,
  "違い": 49235,
  "▁dosti": 10506,
  "▁vat": 55648,
  "全球": 49681,
  "▁gens": 35451,
  "▁norint": 16725,
  "stod": 782,
  "oktobrī": 19066,
  "▁be": 19222,
  "▁موجودہ": 2451,
  "▁elmarad": 24723,
  "▁जिम्मेवारी": 9018,
  "▁hämta": 942,
  "儿子": 42399,
  "牲": 55968,
  "▁фудбалер": 13111,
  "▁varianta": 13,
  "を整え": 23589,
  "AMP": 52532,
  "bó": 40612,
  "▁molesta": 19339,
  "▁향": 47143,
  "▁Pierre": 45802,
  "▁paziente": 13485,
  "▁vaccin": 43400,
  "坭": 32548,
  "ilt": 33035,
  "곽": 25994,
  "▁meðan": 1193,
  "▁simile": 55811,
  "אַקט": 7231,
  "ill": 45246,
  "▁to": 41641,
  "▁aeg": 37463,
  "дження": 57481,
  "zhledem": 17614,
  "▁dolce": 675,
  "新加坡": 40319,
  "نسي": 13743,
  "考える": 3769,
  "▁mer": 3616,
  "▁Português": 27533,
  "▁Ege": 52646,
  "▁seneng": 19754,
  "▁temperature": 43863,
  "▁STR": 41827,
  "▁Virgin": 54705,
  "ដឹកជញ្ជូន": 28809,
  "♝": 31941,
  "렐": 29241,
  "rme": 28453,
  "▁reducido": 24638,
  "闸": 29445,
  "▁Los": 38567,
  "guna": 34027,
  "SIM": 50282,
  "": 32469,
  "▁pup": 45627,
  "▁bought": 6018,
  "maðurinn": 13746,
  "klet": 42392,
  "法院": 38616,
  "itheach": 12138,
  "të": 35863,
  "logia": 52566,
  "luokan": 14010,
  "地下": 47689,
  "受害者": 19639,
  "րատ": 10293,
  "▁Асан": 15979,
  "驚": 28269,
  "▁vzal": 19591,
  "▁förhindra": 26267,
  "ພ້ອມ": 8995,
  "嘴": 37460,
  "▁Oriental": 10081,
  "▁occid": 20818,
  "taq": 49302,
  "▁offensiv": 14588,
  "▁Aga": 16493,
  "特性": 45995,
  "▁pu": 34365,
  "▁Velg": 4143,
  "▁universal": 36899,
  "▁oggetto": 3845,
  "▁artist": 25676,
  "▁చివర": 21348,
  "∠": 31390,
  "▁36": 39672,
  "nem": 35202,
  "뜻": 29139,
  "▁skyn": 1062,
  "ষণ": 15485,
  "▁Corporation": 53498,
  "quar": 56147,
  "▁meiri": 57463,
  "收取": 8098,
  "痫": 32460,
  "ล็อค": 20991,
  "▁jugadores": 5385,
  "⇗": 31494,
  "▁kola": 37706,
  "覚悟": 28417,
  "ËS": 9365,
  "zam": 9272,
  "シー": 52869,
  "": 30835,
  "▁creştere": 16646,
  "vri": 40150,
  "▁Məcəlləsinin": 25255,
  "ොන්": 17891,
  "態度": 55468,
  "迟": 53694,
  "▁آبادی": 166,
  "▁idők": 18647,
  "加工": 37968,
  "▁ideal": 47408,
  "▁Ayo": 10108,
  "▁közönség": 10781,
  "禺": 30546,
  "方の": 53598,
  "▁dim": 37467,
  "hesh": 39577,
  "▁shan": 51781,
  "紆": 31706,
  "濶": 32570,
  "Ban": 49218,
  "▁locali": 39495,
  "脛": 31916,
  "▁Mỹ": 11654,
  "瘪": 31591,
  "讓": 39385,
  "鵡": 33610,
  "オン": 57047,
  "闩": 32883,
  "鹦": 31213,
  "阻": 41969,
  "▁absorb": 45403,
  "▁ћете": 10651,
  "以": 876,
  "dur": 35893,
  "地址": 41525,
  "Gənc": 10601,
  "ကိုယ္စားလွယ္": 28252,
  "フェ": 45292,
  "▁Thần": 953,
  "▁faktura": 6867,
  "りする": 3378,
  "▁sprijin": 56934,
  "▁fhèin": 16587,
  "バル": 18470,
  "▁idem": 43194,
  "▁Referat": 13933,
  "▁aģentūra": 9804,
  "酞": 32926,
  "حکومت": 22979,
  "名古屋": 8402,
  "▁DAS": 54544,
  "ppe": 50263,
  "▁pse": 32477,
  "▁plau": 48004,
  "have": 48935,
  "legri": 47029,
  "妞": 26457,
  "厲害": 19217,
  "Sta": 40386,
  "īri": 8803,
  "ɑ": 29434,
  "▁Nemo": 50294,
  "にする": 52127,
  "▁valvo": 13378,
  "▁доп": 4020,
  "▁новина": 57470,
  "hi": 56931,
  "kab": 47389,
  "それを": 38735,
  "▁vrch": 8549,
  "▁повреди": 11566,
  "▁miracle": 23571,
  "shme": 49481,
  "時間": 37539,
  "南昌": 25130,
  "detail": 4930,
  "▁vegeta": 44783,
  "称之为": 27275,
  "▁total": 38171,
  "ბერი": 6380,
  "▁transpordi": 24604,
  "콜걸만남": 27941,
  "▁بالی": 10635,
  "▁срца": 16397,
  "๋ม": 24653,
  "jímá": 14183,
  "▁Wow": 44105,
  "▁arrangere": 4766,
  "p": 33968,
  "ádá": 11778,
  "230": 52266,
  "▁využití": 9298,
  "▁tuba": 55380,
  "▁Suu": 4291,
  "▁ndarje": 18633,
  "stra": 35092,
  "▁својом": 16239,
  "▁преду": 1282,
  "check": 51676,
  "▁Právě": 19993,
  "വം": 7504,
  "抉": 29040,
  "▁Crime": 3303,
  "▁ಕರೆಯ": 15277,
  "▁புத்தகம்": 23633,
  "我在": 39005,
  "賣": 22767,
  "녁": 30443,
  "▁Paríž": 26208,
  "▁control": 46875,
  "閑": 29370,
  "ndr": 48629,
  "-60": 46347,
  "▁Стрел": 23295,
  "苹": 32290,
  "▁mains": 5544,
  "6-1": 6576,
  "▁النهائي": 18064,
  "▁Alat": 47942,
  "kop": 2747,
  "洩": 18144,
  "家具": 43627,
  "rne": 50067,
  "schlag": 44987,
  "▁podobný": 12253,
  "▁sho": 13571,
  "▁Corre": 41753,
  "运用": 52496,
  "獃": 32425,
  "的数据": 54035,
  "RDI": 17538,
  "▁tartoz": 6114,
  "▁segítséget": 17518,
  "部": 34407,
  "併": 56843,
  "醬": 49721,
  "▁sosem": 10832,
  "▁climat": 48305,
  "▁크게": 55904,
  "資本": 5428,
  "▁impresionante": 17217,
  "愜": 29741,
  "▁Stan": 20888,
  "▁reflex": 49584,
  "▁Jensen": 50256,
  "▁가족": 41158,
  "ىدى": 57411,
  "appel": 48636,
  "gger": 24516,
  "▁wil": 37941,
  "地圖": 5492,
  "次の": 46552,
  "▁mea": 1440,
  "▁busque": 18342,
  "設計": 46691,
  "rle": 50545,
  "▁приезж": 21981,
  "▁samning": 621,
  "retan": 49119,
  "昶": 31463,
  "▁fitore": 11825,
  "▁билген": 18622,
  "▁Utrolig": 27598,
  "ternitat": 27327,
  "▁SEC": 50715,
  "소": 39529,
  "▁tår": 2595,
  "创业": 35189,
  "▁T": 38946,
  "繚": 33546,
  "▁zvezd": 674,
  "ENT": 22351,
  "▁adapt": 39510,
  "这里": 30043,
  "=2": 44648,
  "डू": 2838,
  "▁vergeet": 10349,
  "kü": 10339,
  "▁Rad": 56349,
  "▁bal": 37429,
  "▁umeme": 2573,
  "τερη": 3190,
  "પૂર્ણ": 1092,
  "ム": 7671,
  "Mos": 4099,
  "☦": 33696,
  "▁Di": 52217,
  "▁vazhdim": 17444,
  "兵": 21611,
  "▁spansk": 8434,
  "▁143": 48212,
  "ตัดสินใจ": 2175,
  "▁Tiffany": 16128,
  "장이": 54347,
  "▁bona": 8893,
  "▁anh": 38147,
  "enfant": 53009,
  "ईन": 3899,
  "▁Albani": 7920,
  "▁Куз": 16779,
  "▁görüşüb": 9637,
  "ရႈ": 12807,
  "MU": 27515,
  "安全性": 204,
  "▁Organ": 42838,
  "▁Nasional": 38443,
  "ologic": 46496,
  "lette": 38362,
  "bris": 37942,
  "基因": 52385,
  "▁효과를": 23847,
  "澄清": 26856,
  "adis": 47730,
  "廠商": 50977,
  "kast": 34188,
  "▁round": 48877,
  "▁δεκα": 24154,
  "밥": 51914,
  "▁izvrši": 11920,
  "cham": 50010,
  "▁posat": 13266,
  "▁հարուց": 27279,
  "▁poni": 49015,
  "বান": 56908,
  "司机": 801,
  "▁والط": 6015,
  "▁Federa": 39207,
  "▁NT": 47963,
  "▁Sok": 39129,
  "pus": 50241,
  "877": 18630,
  "採用": 35753,
  "▁හොඳම": 6946,
  "▁50-": 37795,
  "▁zajęć": 9252,
  "▁unaweza": 1587,
  "的文化": 56547,
  "▁750": 35998,
  "在你": 5821,
  "邬": 31836,
  "▁tid": 35562,
  "▁şef": 1361,
  "chon": 52729,
  "首先要": 17144,
  "惦": 30295,
  "ries": 1267,
  "시장": 42853,
  "landet": 44192,
  "▁constitu": 4472,
  "rum": 14184,
  "اهو": 6788,
  "▁previše": 13217,
  "▁exige": 45754,
  "检查": 35060,
  "កម្រ": 24628,
  "▁seviyesin": 14683,
  "usha": 49763,
  "histori": 48033,
  "ڊي": 2100,
  "AG": 27910,
  "犷": 33316,
  "▁Mans": 50315,
  "武": 11133,
  "全市": 54518,
  "莅": 33652,
  "▁fals": 53292,
  "सित": 759,
  "薦": 29142,
  "sugu": 47584,
  "▁yes": 49922,
  "を行います": 16337,
  "▁praktiske": 13112,
  "2011": 1772,
  "▁chúc": 8399,
  "▁hududida": 26385,
  "ιτς": 11877,
  "вард": 3145,
  "ຄອບຄົວ": 9802,
  "▁ingen": 42820,
  "EY": 44012,
  "ထည်": 27467,
  "utan": 16981,
  "标": 27345,
  ":44": 36862,
  "800": 657,
  "▁nor": 6243,
  "ミ": 17424,
  "สนามบิน": 3806,
  "▁કોલ": 20743,
  "▁Milano": 36103,
  "表": 45775,
  "▁firma": 43750,
  "رتبط": 20236,
  "domin": 48672,
  "▁trompe": 12280,
  "▁ባለቤት": 15968,
  "关": 13873,
  "▁continua": 56093,
  "▁Diana": 47535,
  "VM": 42188,
  "馀": 32232,
  "▁sõltub": 19163,
  "▁Vat": 51384,
  "▁acceptable": 24483,
  "▁앱": 55888,
  "▁ਚਲਾ": 24733,
  "▁AU": 45362,
  "▁волос": 9564,
  "▁Faz": 37184,
  "より": 51177,
  "▁spodbud": 23546,
  "ሁለተኛ": 4011,
  "▁окремо": 13995,
  "✅": 10257,
  "▁Paul": 566,
  "▁ফেসবুক": 7288,
  "marin": 41114,
  "▁Elev": 56523,
  "໋": 6646,
  "præsentation": 26874,
  "▁appro": 37979,
  "▁현재": 34033,
  "面向": 50963,
  "▁dat": 46385,
  "在这里": 40082,
  "TAI": 54979,
  "aku": 13488,
  "餿": 32978,
  "▁공개": 40476,
  "dru": 27129,
  "现代化": 54443,
  "ientes": 7645,
  "ssem": 54866,
  "▁1,0": 52698,
  "displayst": 19469,
  "bieg": 57320,
  "▁Ingin": 7520,
  "なんで": 11124,
  "▁CC": 24841,
  "大統領": 24882,
  "MOMO": 16447,
  "▁қарыз": 21061,
  "▁1.8": 52119,
  "距": 56411,
  "铵": 31032,
  "hila": 57455,
  "rce": 38802,
  "▁alaturi": 6955,
  "▁Under": 56562,
  "वर्धन": 17534,
  "sper": 23135,
  "▁jun": 34631,
  "▁tränar": 13098,
  "▁ऑस्ट्रेलिया": 9691,
  "pada": 10478,
  "辩": 5455,
  "▁spe": 9705,
  "▁lop": 39168,
  "▁izraža": 8104,
  "륨": 27588,
  "ുണ്ടെന്ന": 16089,
  "veni": 27368,
  "棗": 29599,
  "靄": 32330,
  "mis": 25162,
  "▁počúva": 23338,
  "▁lancé": 12469,
  "ȋ": 30269,
  "ΑΝΤ": 12293,
  "iu": 36635,
  "섬": 18352,
  "극": 46029,
  "▁پکار": 22423,
  "food": 42855,
  "▁equip": 41970,
  "WAN": 44218,
  "chow": 43094,
  "▁rolle": 48460,
  "ఁ": 29105,
  "خري": 7642,
  "惆": 33566,
  "ridge": 55422,
  "▁Haram": 53126,
  "▁under": 9254,
  "加": 37676,
  "▁suis": 43601,
  "精彩": 43776,
  "ey": 50592,
  "爱好者": 24289,
  "▁ofrecen": 3038,
  "Egy": 12832,
  "過的": 56310,
  "엥": 31176,
  "豋": 32788,
  "สาระ": 14873,
  "▁mobile": 10378,
  "winning": 49215,
  "kosi": 51728,
  "▁потребности": 12978,
  "▁invalid": 45090,
  "ble": 34454,
  "▁ஆகி": 23347,
  "擀": 31982,
  "昙": 31505,
  "leikkaus": 27018,
  "手法": 54840,
  "kon": 16499,
  "дачу": 7808,
  "▁колега": 6405,
  "▁impormasyon": 25800,
  "▁Nha": 48228,
  "ակում": 1423,
  "▁y": 3065,
  "藪": 32187,
  "toimittaja": 9878,
  "▁streaming": 47823,
  "谎": 24753,
  "culos": 40539,
  "▁kansalais": 9403,
  "▁đốt": 12910,
  "пустили": 9599,
  "tec": 11183,
  "bd": 37398,
  "▁اتل": 19717,
  "sider": 36035,
  "▁been": 35063,
  "AB": 2691,
  "电子邮件": 26315,
  "gus": 10484,
  "▁שהיו": 10403,
  "渠道": 45425,
  "▁программе": 9354,
  "▁အသက်": 7718,
  "▁(=": 51788,
  "schakelen": 27499,
  "ende": 26820,
  "rzec": 7790,
  "▁نمايند": 26214,
  "하였": 52084,
  "▁بېرىپ": 12043,
  "▁تسم": 13963,
  "臀": 24881,
  "▁전문": 40700,
  "▁rost": 43772,
  "仨": 31763,
  "▁فیض": 21340,
  "▁razne": 12147,
  "▁qolish": 13420,
  "▁официр": 24701,
  "99": 43137,
  "▁Leit": 48323,
  "っていう": 11583,
  "▁excel": 47462,
  "▁predict": 55472,
  "▁wirksam": 26829,
  "▁wathi": 14660,
  "the": 27699,
  "One": 46835,
  "▁Pensa": 56627,
  "▁같은": 9575,
  "▁የቅ": 7387,
  "经济": 44280,
  "▁elképzelés": 24453,
  "▁STUDI": 27214,
  "ിലേക്കു": 3999,
  "人間": 38736,
  "▁usually": 44928,
  "টের": 3677,
  "蒼": 23752,
  "▁분명": 9140,
  "▁Se": 43058,
  "▁Au": 45051,
  "▁déanta": 2131,
  "ማል": 4937,
  "▁NË": 6446,
  "▁کرام": 9465,
  "anga": 10190,
  "elės": 10367,
  "۲۵": 21803,
  "時期": 36473,
  "esco": 56324,
  "▁novca": 5985,
  "▁النصر": 17276,
  "辞": 56293,
  "Het": 55075,
  "ദൃശ്യ": 9754,
  "▁domain": 51526,
  "ppen": 57132,
  "yydestä": 14855,
  "▁Ph": 7454,
  "誠信": 23123,
  "읜": 32499,
  "▁τουρκικ": 17011,
  "▁205": 50425,
  "ចរ": 14448,
  "▁might": 8948,
  "喃": 29120,
  "‵": 32355,
  "▁vendet": 52230,
  "덕": 41635,
  "罪": 21025,
  "侣": 28962,
  "enda": 49430,
  "▁NAM": 50720,
  "rry": 44961,
  "cf": 48474,
  "▁inedit": 14263,
  "▁significant": 54502,
  "▁3-": 45169,
  "āka": 51534,
  "vila": 37547,
  "你就": 49089,
  "▁ágúst": 4283,
  "蒯": 32688,
  "▁izlet": 9630,
  "▁Xiao": 24095,
  "▁कमरे": 18706,
  "▁173": 54859,
  "咖啡": 25539,
  "任": 49851,
  "dh": 44479,
  "፺": 33506,
  "▁ПОД": 6846,
  "▁серии": 11839,
  "▁toga": 13536,
  "有效地": 16215,
  "んで": 26255,
  "▁facilita": 37165,
  "Car": 25259,
  "齎": 33254,
  "▁ألا": 3110,
  "▁රහාර": 19619,
  "▁vaca": 44391,
  "▁D": 39213,
  "▁πληροφορία": 26590,
  "틋": 33416,
  "▁Crew": 18265,
  "▁social": 26491,
  "인지": 45919,
  "сър": 23813,
  "▁세계": 23891,
  "▁계속": 41849,
  "▁privatiz": 13425,
  "셔": 41690,
  "▁1-2": 13129,
  "╎": 32204,
  "▁heft": 7313,
  "round": 48537,
  "320": 51178,
  "▁Jasmin": 15047,
  "庖": 32424,
  "пустити": 12631,
  "啲": 28094,
  "▁ಆಡ": 12212,
  "뛴": 33476,
  "▁мөнгөн": 18221,
  "▁verdien": 6253,
  "juna": 56615,
  "▁Kỳ": 43176,
  "▁optimal": 28538,
  "▁Bosni": 44609,
  "▁mean": 35592,
  "▁Universal": 44214,
  "忿": 31148,
  "暦": 29760,
  "▁garota": 22350,
  "▁attribut": 12015,
  "haka": 48437,
  "▁gewoonlik": 19944,
  "▁ελληνικές": 25124,
  "plas": 43644,
  "💜": 29601,
  "ಿಯಲ್ಲಿ": 5590,
  "ibilità": 1657,
  "▁במקרה": 1811,
  "▁오후": 45313,
  "孟": 1286,
  "scrip": 42030,
  "▁fed": 43356,
  "▁respira": 41548,
  "機械": 43275,
  "CAP": 8993,
  "loga": 34321,
  "▁Vader": 6966,
  "▁cualquiera": 9435,
  "chou": 50930,
  "▁человеч": 18397,
  "▁hinter": 39265,
  "Tədqiqat": 27734,
  "▁양": 15876,
  "aurait": 21487,
  "閉": 43396,
  "ลุง": 18314,
  "▁Fag": 49665,
  "▁Aku": 52623,
  "ipi": 41171,
  "▁наследство": 3879,
  "▁खर्ब": 27240,
  "碴": 32185,
  "▁European": 35357,
  "▁kapta": 6451,
  "的設計": 52163,
  "鹄": 32765,
  "▁76": 11504,
  "▁TK": 2278,
  "▁თამაშ": 2448,
  "vil": 43353,
  "крыть": 14345,
  "Ph": 41530,
  "mun": 5804,
  "worth": 55740,
  "榈": 33584,
  "pino": 47742,
  ":06": 37039,
  "フランス": 13124,
  "▁mutfağı": 28698,
  "▁troll": 361,
  "▁άσκηση": 12706,
  "จังหวะ": 17193,
  "party": 49823,
  "▁arc": 41828,
  "钢": 49072,
  "▁zabezpečuje": 25815,
  "Δ": 6586,
  "▁Sandra": 51807,
  "HE": 20989,
  "▁Pok": 49402,
  "▁fins": 51248,
  "▁Gelegenheit": 6062,
  "▁ஆதரவு": 21403,
  "碑": 18744,
  "깟": 32963,
  "▁Sec": 49897,
  "orden": 38920,
  "lain": 15040,
  "基础": 34511,
  "21": 36262,
  "လိုက္ပါ": 15835,
  "▁entspricht": 18241,
  "kiel": 40974,
  "意义": 40309,
  "▁justifica": 45722,
  "▁pack": 40886,
  "103": 47290,
  "ても": 49209,
  "▁blisko": 113,
  "▁kiertä": 26851,
  "▁achieve": 49033,
  "▁folgt": 1987,
  "▁entstehen": 5422,
  "▁Santos": 42776,
  "▁dēvē": 28398,
  "▁నవల": 23367,
  "▁ਚੋਣਾਂ": 2608,
  "闰": 32100,
  "הגנה": 2215,
  "缺乏": 41879,
  "▁veřejné": 15855,
  "▁negle": 6226,
  "▁cobra": 55950,
  "儿童": 36628,
  "▁nepo": 53514,
  "▁sjúkra": 28101,
  "涩": 28640,
  "imus": 53853,
  "的な": 2287,
  "▁שינויים": 8770,
  "▁FM": 25272,
  "▁awak": 38870,
  "▁cargos": 4300,
  "▁Jule": 3290,
  "▁കൊല്ലം": 20412,
  "的中国": 53299,
  "llar": 32458,
  "随后": 49112,
  "▁teemal": 21043,
  "▁lika": 24207,
  "▁материнск": 28752,
  "▁(13": 29933,
  "NET": 17768,
  "ト": 44630,
  "api": 39864,
  "KR": 45158,
  "▁жұмысқа": 22568,
  "▁Code": 35377,
  "▁bien": 18316,
  "▁Amar": 35298,
  "쨍": 31603,
  "ingresso": 10028,
  "▁mp": 56499,
  "▁Трудно": 26306,
  "▁Đào": 1742,
  "▁Hra": 40600,
  "老闆": 53653,
  "させ": 43053,
  "ચર": 57135,
  "ネ": 27453,
  "Vil": 54712,
  "嫁": 49940,
  "JS": 47726,
  "觴": 31994,
  "▁Jl": 6470,
  "▁domače": 7834,
  "[24]": 16738,
  "gge": 27554,
  "▁luna": 34272,
  "HUB": 21941,
  "▁folga": 16037,
  "▁بينها": 12734,
  "铲": 29888,
  "dani": 44778,
  "ตั๋ว": 11960,
  "イン": 20805,
  "▁Schnell": 17885,
  "國中": 12668,
  "▁Æ": 46913,
  "ibilbide": 9696,
  "▁Woensdag": 27584,
  "▁manu": 35460,
  "大型": 27109,
  "▁ml": 49572,
  "曙": 29037,
  "▁క్ల": 2372,
  "▁mul": 15581,
  "途": 36940,
  "▁Hayat": 47953,
  "▁maamuzi": 22776,
  "ACA": 53809,
  "▁हैरान": 18487,
  "▁Celo": 10091,
  "▁Cirk": 11678,
  "岗": 6742,
  "颐": 30318,
  "┪": 32346,
  "▁140": 6682,
  "总体": 52880,
  "▁fait": 36548,
  "▁Yunan": 641,
  "皙": 29694,
  "▁bermaksud": 7657,
  "▁novinár": 24633,
  "▁Lady": 39564,
  "绣": 29252,
  "▁diretti": 12091,
  "66)": 53357,
  "VT": 54067,
  "henti": 47183,
  "經過": 37767,
  "คลินิก": 19552,
  "▁도움": 21423,
  "gemaak": 20448,
  "▁musique": 50124,
  "칵": 29774,
  "nl": 7835,
  "スタイル": 915,
  "▁56": 55180,
  "▁fr": 10011,
  "manna": 35437,
  "rück": 49054,
  "▁Mana": 15071,
  "亙": 31271,
  "CR": 26411,
  "ค้น": 8605,
  "БЛ": 7046,
  "畜": 14920,
  "१७": 4646,
  "▁Zir": 50397,
  "▁αίμα": 6395,
  "ups": 50665,
  "raum": 42349,
  "草": 6430,
  "võtmise": 20522,
  "▁Schutz": 46241,
  "▁barva": 57467,
  "▁SER": 43289,
  "Ga": 16333,
  "广": 36589,
  "▁dum": 53467,
  "▁Xeberler": 22169,
  "▁selle": 51219,
  "back": 6578,
  "政协委员": 28318,
  "드립니다": 2581,
  "▁estima": 34183,
  "▁Nicole": 5368,
  "╒": 31170,
  "▁gördük": 12530,
  "Euro": 52807,
  "特色": 30706,
  "▁gespeel": 7127,
  "に関しては": 5194,
  "〗": 18501,
  "▁Vent": 49507,
  "▁nijak": 7759,
  "▁skaitu": 20038,
  "を忘れ": 18545,
  "▁121": 45821,
  "▁турш": 2322,
  "▁1863": 10132,
  "檻": 29077,
  "▁poging": 17178,
  "ရှောင်": 27772,
  "銣": 32626,
  "▁Metro": 38151,
  "得到了": 48878,
  "走進": 21965,
  "▁főleg": 11367,
  "▁оформлен": 7925,
  "不多": 52009,
  "챤": 33098,
  "庾": 31364,
  "▁Muk": 52314,
  "▁sporo": 49806,
  "礙": 21588,
  "九": 4238,
  "▁आउट": 10700,
  "riedade": 15722,
  "ковіч": 25641,
  "▁pies": 36464,
  "显示": 24968,
  "▁имати": 1047,
  "▁foregår": 7017,
  "▁визначають": 20562,
  "HAN": 28863,
  "</s_cnt>": 57529,
  "▁дето": 12932,
  "▁而": 45066,
  "不好": 33947,
  "herbergi": 7386,
  "▁చేస్తూ": 2300,
  "-1": 45391,
  "▁ces": 44309,
  "▁Andra": 47112,
  "ัท": 6858,
  "hy": 35966,
  "猛": 42797,
  "▁Credo": 16405,
  "まあ": 5380,
  "にあたって": 27480,
  "▁günümüz": 18070,
  "▁Rat": 24042,
  "颱": 31645,
  "stro": 48156,
  "esprit": 48091,
  "▁worm": 3380,
  "▁оставить": 12475,
  "一个人": 36663,
  "▁Tab": 25813,
  "▁reduce": 37484,
  "uyu": 46163,
  "^^;": 9295,
  "▁स्थल": 4244,
  "": 31747,
  "▁cīņa": 22556,
  "sag": 40859,
  "union": 54104,
  "锚": 30680,
  "▁بچی": 13614,
  "ection": 45863,
  "▁2019": 38240,
  "▁1897": 4415,
  "haha": 37875,
  "べき": 53329,
  "▁exterior": 35405,
  "늄": 29294,
  "听": 1199,
  "▁සුළු": 12041,
  "▁Kaksi": 16138,
  "▁maioría": 537,
  "kese": 6282,
  "▁Outlet": 13772,
  "▁võimalda": 14344,
  "▁Coast": 1652,
  "法案": 10554,
  "▁රස්": 23303,
  "ONDO": 9751,
  "▁회사는": 22104,
  "MY": 50314,
  "▁úgyhogy": 26284,
  "观察": 50075,
  "▁мускул": 1862,
  "▁chối": 13278,
  "商业": 34230,
  "容器": 19771,
  "▁Guàrdia": 27735,
  "": 30335,
  "▁açılır": 20434,
  "ase": 49194,
  "ochtend": 6046,
  "hm": 18902,
  "强制": 12948,
  "urd": 53304,
  "▁Karimov": 7380,
  "▁പ്രിയ": 57205,
  "全": 32006,
  "กล้วย": 20084,
  "23)": 53676,
  "▁profesjonalne": 19861,
  "▁RPG": 6086,
  "bei": 21953,
  "SH": 7275,
  "▁ಆಟಗಾರ": 21094,
  "あり": 40192,
  "涝": 30699,
  "i": 7456,
  "▁Kral": 52950,
  "霸": 43463,
  "esh": 6767,
  "▁Historia": 35078,
  "ಿಬ್ಬರ": 26435,
  "▁dizaine": 2903,
  "▁Pani": 39237,
  "▁אחראי": 21084,
  "▁attiecas": 20890,
  "▁ખુલ": 18212,
  "俸": 31063,
  "von": 53633,
  "▁participants": 45037,
  "oikeudet": 11652,
  "이란": 51261,
  "-300": 50998,
  "<s_nm>": 57528,
  "▁dôležit": 17513,
  "▁časom": 14490,
  "center": 35850,
  "▁stede": 2883,
  "走廊": 23245,
  "Imp": 7183,
  "居住": 44838,
  "boo": 44394,
  "दन्त": 25699,
  "髭": 30675,
  "▁culpa": 35236,
  "箍": 30774,
  "▁mush": 52083,
  "klep": 197,
  "▁internet": 18603,
  "льнікам": 22900,
  "鐳": 30842,
  "画面": 39705,
  "ODA": 56461,
  "近年来": 45054,
  "čiams": 7781,
  "胆": 6639,
  "▁BD": 54706,
  "hanan": 48071,
  "▁AL": 56991,
  "▁130": 4501,
  "▁conflit": 3462,
  "도를": 54216,
  "kim": 52480,
  "atin": 51452,
  "▁چڪو": 12577,
  "▁comment": 48834,
  "問題": 42787,
  "▁альбо": 3081,
  "▁/>": 45349,
  "▁Rhod": 56830,
  "98": 15524,
  "▁plec": 51569,
  "ทัย": 23302,
  "Kon": 35626,
  "дух": 13025,
  "箏": 30734,
  "chang": 55163,
  "▁wonderful": 45822,
  "擔任": 51354,
  "鐘": 54554,
  "▁зворотн": 24813,
  "▁erg": 19176,
  "▁തമ്മിലുള്ള": 21312,
  "宴": 44172,
  "соответствующего": 24595,
  "▁hljóð": 14936,
  "▁커": 44734,
  "▁зустрічі": 9275,
  "NUS": 12839,
  "以下是": 11191,
  "dogo": 1560,
  "ຄອນ": 19739,
  "宥": 30035,
  "gott": 54040,
  "клик": 12063,
  "▁ministru": 5186,
  "ware": 13823,
  "▁최고": 47922,
  "▁Βρεταν": 26905,
  "▁corporal": 57187,
  "58": 148,
  "iller": 37032,
  "ស្រែ": 21017,
  "▁Voices": 43148,
  "다면": 53442,
  "夺": 55246,
  "嘩": 29012,
  "▁העבר": 2974,
  "別の": 53497,
  "▁combat": 36077,
  "▁Dara": 55371,
  "▁VỀ": 19412,
  "筒": 5335,
  "▁proportion": 6000,
  "talouden": 4913,
  "▁адрас": 8235,
  "CC": 9089,
  "==": 48972,
  "状": 50189,
  "渲": 33750,
  "▁verba": 45373,
  "-2016": 39262,
  "ERO": 42648,
  "video": 646,
  "多い": 47156,
  "▁عالي": 2860,
  "sisi": 45042,
  "kering": 4649,
  "▁stea": 48566,
  "▁SMK": 14207,
  "▁وترك": 16112,
  "▁Cream": 44194,
  "一百": 53520,
  "idin": 47880,
  "섣": 33354,
  "掻": 33570,
  "百姓": 12240,
  "▁highlight": 6826,
  "csok": 7750,
  "alka": 19871,
  "风": 49669,
  "112": 54472,
  "▁hodiaŭ": 10455,
  "▁இப்ப": 5828,
  "verein": 53219,
  "sura": 43795,
  "▁αληθ": 13620,
  "予約": 42301,
  "৩০": 12456,
  "▁zenye": 16877,
  "וכח": 8949,
  "坑": 54802,
  "▁ഉടന്": 17053,
  "▁мүмкүнчүлүк": 25107,
  "Други": 27087,
  "ccio": 35425,
  "阻碍": 26922,
  "▁агентство": 12764,
  "▁اللهم": 12528,
  "▁բառեր": 21332,
  "seda": 46923,
  "▁konieczności": 19651,
  "nica": 36947,
  "▁Nick": 42242,
  "▁La": 28167,
  "▁73": 11773,
  "ပစၥည္း": 12567,
  "▁Us": 4456,
  "BO": 16979,
  "កាលពី": 18538,
  "▁mentor": 43668,
  "ባዊ": 3397,
  "뱉": 33622,
  "<unk>": 3,
  "惘": 30299,
  "进行了": 36675,
  "ไส้": 19462,
  "叙利亚": 13332,
  "ቃል": 4056,
  "ore": 41379,
  "情况": 4874,
  "▁καταργ": 25851,
  "▁gel": 47521,
  "ndus": 35062,
  "▁Kandungan": 24896,
  "▁capita": 48702,
  "▁οικονομική": 2536,
  "▁irgendeine": 26949,
  "▁vrat": 3975,
  "▁전시": 56959,
  "▁pc": 38366,
  "专业的": 51040,
  "▁exerci": 45129,
  "▁locale": 35474,
  "▁refresh": 23957,
  "▁recepta": 11175,
  "IM": 16599,
  "▁Аллах": 1011,
  "▁рр": 11459,
  "꽂": 33701,
  "ഗന്ധ": 23947,
  "▁heaks": 19360,
  "▁Envia": 2088,
  "法国": 38864,
  "喎": 30772,
  "ទំនាក់ទំនង": 18793,
  "▁dove": 50837,
  "逛": 45038,
  "▁Gaza": 48831,
  "▁ունեմ": 24393,
  "是以": 53109,
  "▁Ce": 19111,
  "▁የሕግ": 22787,
  "楽しい": 52942,
  "控制": 2915,
  "▁fini": 37764,
  "人员": 2197,
  "▁diagnostic": 43653,
  "▁Ty": 52360,
  "ribu": 35104,
  "▁potential": 39032,
  "プレイヤー": 27277,
  "▁Cum": 49643,
  "杷": 33369,
  "/11/2018": 7317,
  "IS": 57408,
  "▁경영": 55516,
  "dhe": 1310,
  "gers": 34319,
  "miz": 39321,
  "ns": 17776,
  "▁minim": 11452,
  "▁dolgozott": 26706,
  "ētā": 39163,
  "▁ଖାଇବା": 12250,
  "▁around": 2417,
  "▁спецслужб": 25413,
  "▁Shah": 10447,
  "8,1": 23156,
  "▁174": 54408,
  "主管": 49291,
  "▁inancı": 27207,
  "▁\"": 40615,
  "607": 21659,
  "inge": 44413,
  "Cİ": 13638,
  "▁toţi": 3347,
  "võrk": 23442,
  "▁دانه": 10905,
  "": 32513,
  "▁učiteľ": 13175,
  "▁Este": 36682,
  "øn": 45154,
  "▁PIN": 44195,
  "隻": 45360,
  "▁Poli": 2142,
  "▁mogna": 21972,
  "▁step": 35798,
  "根": 6134,
  "胺": 19902,
  "runa": 45869,
  "懊": 30219,
  "kku": 14151,
  "▁વખતે": 56978,
  "zem": 45227,
  "FC": 34846,
  "▁pedagog": 44015,
  "PRA": 6464,
  "▁target": 35970,
  "矿": 44366,
  "▁sprejel": 11836,
  "흑": 4845,
  "▁henhold": 7235,
  "xshash": 20703,
  "▁(23": 44168,
  "▁oficiais": 18917,
  "След": 27321,
  "▁구입": 1867,
  "酝": 33638,
  "nefndar": 6716,
  "綏": 31663,
  "valvonta": 10178,
  "ନଥିଲେ": 22111,
  "יקס": 4158,
  "られ": 36312,
  "▁애": 38501,
  "▁מסוים": 19583,
  "finden": 11942,
  "vati": 1997,
  "▁julge": 10822,
  "ohtu": 19416,
  "▁Centra": 51270,
  "▁ber": 51287,
  "><": 50454,
  "ပါပဲ": 14884,
  "Gre": 55205,
  "▁young": 34681,
  "увався": 8952,
  "▁shopping": 37219,
  "효": 34274,
  "▁Sound": 40398,
  "▁finansowych": 20110,
  "不是": 41559,
  "alia": 40180,
  "騰": 2297,
  "▁구": 5906,
  "▁Comment": 14679,
  "വാര്": 18549,
  "▁specie": 44740,
  "知って": 4541,
  "▁prijave": 3703,
  "쭝": 32678,
  "▁गोविन्द": 18319,
  "探し": 6300,
  "▁ADA": 51256,
  "▁Johnson": 46044,
  "▁Holocaust": 24225,
  "▁отказва": 22833,
  "KY": 36698,
  "avant": 53648,
  "膛": 30128,
  "郗": 31899,
  "陽": 35704,
  "靠": 19122,
  "滢": 32805,
  "▁mezzo": 45454,
  "▁channel": 54012,
  "▁보여": 55226,
  "בוב": 16151,
  "Nagy": 20822,
  "▁Tarptautini": 26691,
  "ធ្វើឱ្យ": 21536,
  "▁прекр": 9411,
  "晦": 29396,
  "mista": 4330,
  "σθητ": 1954,
  "▁Est": 6433,
  "dejte": 12476,
  "70)": 54672,
  "了": 34751,
  "▁rude": 53022,
  "▁prakse": 2823,
  "▁Fol": 35844,
  "▁Главная": 10524,
  "▁Justin": 43801,
  "真是": 36704,
  "▁гени": 15912,
  "▁गराउन": 704,
  "的感觉": 50746,
  "ngu": 1030,
  "lma": 27176,
  "▁menguasai": 6123,
  "▁Carbon": 7740,
  "▁AG": 31283,
  "▁Lige": 49045,
  "▁Management": 34196,
  "ytt": 51589,
  "Win": 55469,
  "▁двамата": 4337,
  "▁kim": 50971,
  "▁iznad": 7652,
  "stor": 23514,
  "▁구성": 40464,
  "▁teórica": 26831,
  "▁Deum": 56177,
  "▁financier": 41126,
  "▁দশ": 19689,
  "カ": 114,
  "▁pol": 38532,
  "▁Bach": 37950,
  "▁Bollywood": 10530,
  "Lo": 12712,
  "▁Tuli": 57324,
  "rob": 24455,
  "▁post": 7551,
  "▁beginning": 53982,
  "以上": 47547,
  "▁Lamb": 5778,
  "cchio": 54155,
  "തിരഞ്ഞെടുപ്പ": 23395,
  "ฟอง": 24368,
  "▁Күн": 1926,
  "tka": 57083,
  "Od": 49563,
  "▁sensu": 47710,
  "故": 28970,
  "▁ئۇچ": 11531,
  "▁klere": 20283,
  "দ্য": 4422,
  "vid": 44620,
  "▁жылдам": 17241,
  "▁commitment": 15563,
  "▁z": 56479,
  "▁Daripada": 2459,
  "mast": 49826,
  "迴": 8271,
  "njang": 46267,
  "再": 23096,
  "ensis": 40726,
  "讀": 35099,
  "▁Unión": 53956,
  "▁mas": 4123,
  "思い": 36661,
  "gaard": 36104,
  "▁video": 5077,
  "ट्रिक": 18297,
  "▁Mum": 53206,
  "minstens": 24574,
  "獨": 36249,
  "▁befinner": 11291,
  "実践": 11026,
  "璧": 25446,
  "嵘": 31208,
  "上次": 7119,
  "▁Guardian": 52629,
  "新闻发布会": 22680,
  "面前": 41550,
  "یټ": 2592,
  "▁отметил": 2951,
  "錚": 31796,
  "STA": 26377,
  "▁caranya": 12434,
  "饞": 31361,
  "方も": 44979,
  "▁kritisk": 2354,
  "▁esforço": 4335,
  "▁일본": 27163,
  "▁chef": 25281,
  "▁Numa": 56289,
  "economic": 15260,
  "▁esterni": 21264,
  "▁vedligehold": 28796,
  "mont": 12955,
  "▁Lake": 40661,
  "뉠": 31958,
  "픔": 26626,
  "嘀": 29551,
  "▁14.00": 52302,
  "angle": 2388,
  "▁Adevăr": 27965,
  "やすく": 56861,
  "▁Skor": 50989,
  "thai": 35329,
  "▁نماد": 14558,
  "-4": 3989,
  "鰥": 32974,
  "箱": 24541,
  "ႀ": 29311,
  "▁1905": 48026,
  "▁gum": 35516,
  "▁sprawdza": 3183,
  "▁пользуются": 25328,
  "▁Ł": 47452,
  "▁태": 42489,
  "륭": 29269,
  "▁функционира": 2160,
  "พนัน": 3876,
  "更是": 25123,
  "മല": 3032,
  "朦": 29329,
  "▁następujące": 19834,
  "▁other": 38790,
  "▁spa": 44963,
  "▁Zgodnie": 20469,
  "▁ქუჩა": 3918,
  "▁vivi": 35770,
  "国家级": 21480,
  "더": 10863,
  "SER": 43049,
  "▁gagasan": 22476,
  "▁comunist": 2225,
  "酣": 30366,
  "包裝": 48261,
  "真實": 47155,
  "▁පිය": 5255,
  "dab": 36883,
  "▁ზღვა": 12960,
  "▁berbahasa": 23958,
  "▁31-": 43064,
  "▁बंधन": 26719,
  "jandi": 2501,
  "▁നേരെ": 5982,
  "▁Google": 18512,
  "▁سالگی": 15668,
  "筆者": 12895,
  "▁Hitler": 40114,
  "的功能": 52534,
  "▁rem": 10176,
  "▁Black": 199,
  "▁Dh": 39970,
  "▁nantinya": 9983,
  "pun": 40178,
  "▁хама": 935,
  "ສໍາພັນ": 27479,
  "▁Tak": 34071,
  "யிலும்": 15305,
  "▁দেবে": 12238,
  "天天": 53513,
  "结果": 20253,
  "▁الحادث": 22276,
  "藥": 24556,
  "▁luften": 7602,
  "tian": 44654,
  "vení": 6186,
  "▁trgu": 483,
  "▁umrl": 13794,
  "▁schema": 46788,
  "抵": 44827,
  "졋": 32647,
  "▁θέσεις": 1328,
  "▁geändert": 11487,
  "▁مميز": 1155,
  "usi": 54097,
  "试试": 22592,
  "筚": 33071,
  "များနှင့်": 19435,
  "暨": 48947,
  "毛": 415,
  "🗽": 32228,
  "噛": 28862,
  "▁Olahraga": 19556,
  "panel": 55207,
  "ις": 51498,
  "▁заходу": 16135,
  "仪": 56485,
  "發生": 24475,
  "▁Bashk": 49515,
  "▁Hamilton": 56133,
  "▁úspech": 7345,
  "優先": 56519,
  "▁reduc": 50682,
  "▁თემაზე": 13833,
  "▁Vir": 1096,
  "▁sebulan": 5558,
  "道路": 34728,
  "徠": 31109,
  "၂၈": 20760,
  "دیا": 7611,
  "▁таможенн": 4132,
  "▁водач": 21486,
  "센터": 31936,
  "▁dues": 40478,
  "▁Quer": 45811,
  "同志": 43948,
  "莴": 33066,
  "▁Arizona": 13558,
  "▁baza": 5490,
  "▁Tarik": 22824,
  "擴大": 8054,
  "▁muutus": 9226,
  "▁Çocuklar": 15910,
  "▁charge": 34050,
  "쑤": 30116,
  "鳕": 33170,
  "tos": 21176,
  "討論": 37897,
  "悪い": 55687,
  "▁Sen": 40645,
  "阐述": 27377,
  "庆祝": 17999,
  "▁மாணவி": 20517,
  "ssen": 51234,
  "▁visite": 38456,
  "鉤": 29392,
  "▁Stre": 31771,
  "▁ආදර": 7148,
  "▁රෑ": 56982,
  "timen": 10966,
  "▁ζ": 36075,
  "▁nas": 10086,
  "ਹਰਾ": 24003,
  "elia": 55683,
  "boende": 16478,
  "阆": 33257,
  "44": 6187,
  "cela": 40687,
  "bəyli": 19458,
  "▁viral": 54430,
  "▁bisedime": 21224,
  "ไน": 12003,
  "wier": 34853,
  "2-": 19227,
  "▁gene": 25950,
  "▁65": 45143,
  "▁হত্যার": 16898,
  "▁Vor": 42504,
  "ագիտության": 18096,
  "保持": 6165,
  "ిస్తుంది": 8197,
  "会产生": 23902,
  "分": 13706,
  "五十": 748,
  "▁during": 22560,
  "oan": 45240,
  "▁Hair": 43747,
  "▁gol": 52482,
  "▁Lugo": 39986,
  "ås": 45415,
  "▁κόσμος": 2477,
  "宕": 29573,
  "▁שונה": 7620,
  "▁ଗଣ": 7833,
  "▁Pos": 8594,
  "vini": 48562,
  "laq": 48240,
  "檎": 33367,
  "רוד": 10046,
  "уванню": 20417,
  "haga": 56100,
  "▁RAKYAT": 25311,
  "▁bare": 36049,
  "▁skrivit": 7146,
  "▁EM": 21186,
  "erd": 28512,
  "▁Zij": 47289,
  "▁planlagt": 8950,
  "ヤ": 38489,
  "としては": 44414,
  "🍄": 32514,
  "▁今回は": 53926,
  "läufig": 19829,
  "깻": 33194,
  "립": 19575,
  "▁때문이다": 52043,
  "不": 44926,
  "▁rechten": 5883,
  "sta": 45835,
  "▁symbol": 34445,
  "▁Flash": 35334,
  "▁Stefan": 38445,
  "ગ્ન": 17707,
  "峭": 29610,
  "linna": 41709,
  "tma": 26347,
  "宮": 34965,
  "Гар": 13541,
  "▁biolog": 11769,
  "쩍": 29167,
  "▁wake": 57267,
  "舞台": 40819,
  "มีลักษณะ": 24201,
  "▁interval": 43469,
  "自動車": 9449,
  "▁ieguldīj": 28672,
  "柬": 29944,
  "眼睛": 39104,
  "▁welcome": 52716,
  "▁204": 1646,
  "▁Ljubljana": 42238,
  "詣": 30348,
  "▁Carta": 56748,
  "增长": 12675,
  "anka": 10113,
  "▁பத": 18808,
  "▁entry": 40550,
  "▁Estatuto": 22490,
  "▁Ž": 2383,
  "▁intro": 47605,
  "▁قياس": 18778,
  "▁valida": 41160,
  "▁задумыва": 24547,
  "्रे": 49,
  "▁patirties": 25137,
  "▁vacker": 7981,
  "一般": 50841,
  "joh": 48075,
  "▁buluş": 3557,
  "▁Naidheachdan": 14792,
  "▁વાંચવા": 20488,
  "mpel": 36447,
  "吱": 29286,
  "മത": 8747,
  "▁Stefán": 22373,
  "忻": 30757,
  "ಽ": 32352,
  "vægge": 23217,
  "פייסבוק": 1904,
  "▁mos": 50166,
  "▁complement": 2750,
  "▁skaidro": 11184,
  "Implijout": 27173,
  "ण्ट": 12224,
  "סתובב": 27673,
  "агдсан": 7918,
  "uwa": 42044,
  "鋼": 47624,
  "▁1.4": 42573,
  "endo": 39593,
  "小": 3249,
  "ありました": 8394,
  "宗": 36119,
  "▁23": 2693,
  "▁Mohon": 19131,
  "ix": 39838,
  "dade": 14139,
  "teste": 2515,
  "▁రూపొంద": 16929,
  "rò": 27077,
  "▁Haw": 7491,
  "▁horário": 2769,
  "▁player": 45727,
  "▁SMS": 2973,
  "不敢": 41860,
  "下来": 36714,
  "▁9.": 37972,
  "接下来": 49845,
  "▁Diễn": 1532,
  "▁plu": 5721,
  "控": 16513,
  "邵": 26317,
  "▁sax": 43687,
  "▁VAL": 44883,
  "翻": 24241,
  "ungen": 50596,
  "far": 38886,
  "tsaka": 1370,
  "▁planta": 25301,
  "▁Ollscoil": 16421,
  "畅": 53905,
  "يئر": 3368,
  "🏼": 28396,
  "驮": 32766,
  "▁연결": 49245,
  "치는": 49093,
  "▁1993": 9439,
  "躑": 31943,
  "人类": 34207,
  "末": 34804,
  "▁Grad": 26190,
  "낄": 33806,
  "股东": 1662,
  "しながら": 45549,
  "▁araçları": 14012,
  "dys": 49634,
  "▁systematic": 28704,
  "▁muss": 48837,
  "▁sang": 46448,
  "採": 46623,
  "▁Fine": 48473,
  "▁head": 888,
  "▁another": 13448,
  "Af": 49196,
  "▁Name": 13573,
  "▁tò": 5661,
  "▁धारणा": 11762,
  "ていない": 54607,
  "▁October": 18974,
  "▁frustra": 45324,
  "もなく": 56392,
  "门槛": 25918,
  "အခမဲ့": 16060,
  "dé": 2728,
  "▁مجاني": 10589,
  "▁happy": 17632,
  "▁《": 13206,
  "TIS": 52192,
  "렙": 30943,
  "ince": 40387,
  "ター": 17906,
  "▁Singh": 34211,
  "▁uralkod": 22237,
  "ところ": 16261,
  "ძლევ": 5094,
  "distrikt": 52303,
  "▁Nos": 12130,
  "Gu": 26707,
  "寶寶": 51241,
  "▁tart": 12471,
  "再度": 50181,
  "▁Vari": 53423,
  "▁sportivi": 19287,
  "til": 38374,
  "▁будућности": 19091,
  "▁pole": 45082,
  "▁Shqiptar": 57365,
  "adh": 45095,
  "▁ներքո": 13921,
  "iresaka": 19203,
  "▁منجر": 2565,
  "绵": 22614,
  "孽": 29876,
  "mite": 37759,
  "love": 33861,
  "橢": 33615,
  "pper": 52412,
  "캬": 30752,
  "놨": 29461,
  "pora": 36997,
  "ives": 46485,
  "▁resa": 42714,
  "▁contribu": 25867,
  "可": 9776,
  "▁തോന്നി": 8658,
  "hami": 41675,
  "zsa": 55510,
  "▁zählt": 10147,
  "Tar": 47113,
  "▁Ge": 25592,
  "mh": 2390,
  "sveit": 4199,
  "昀": 30921,
  "的方式": 21298,
  "╫": 31817,
  "▁Far": 50223,
  "GEN": 39223,
  "啰": 30595,
  "▁outfit": 46186,
  "ACH": 38708,
  "avit": 46713,
  "▁ਜਾਣਗੇ": 27460,
  "節": 9260,
  "▁lanean": 14195,
  "杰": 36619,
  "藝術": 27150,
  "▁ceremoni": 43766,
  "뷔": 29029,
  "ós": 4404,
  "▁industriel": 14830,
  "LIST": 21339,
  "サイト": 20560,
  "睏": 31924,
  "鈎": 31725,
  "糊": 3358,
  "istele": 833,
  "▁135": 38029,
  "徊": 33851,
  "▁bildirilib": 22631,
  "▁Ausdruck": 20334,
  "笔": 42813,
  "▁Atención": 23955,
  "🎄": 30123,
  "MIT": 56326,
  "▁한번": 50762,
  "▁feminin": 51016,
  "▁Մարտի": 14948,
  "▁законодав": 9164,
  "оборудован": 24370,
  "ប្រព័ន្ធ": 19613,
  "▁Hawaii": 9384,
  "υβέρνηση": 25919,
  "拣": 30597,
  "▁Cred": 48788,
  "cim": 48824,
  "▁Fox": 42677,
  "と同じ": 46588,
  "天": 20307,
  "▁toe": 40852,
  "谋": 47490,
  "reform": 50346,
  "598": 19936,
  "坳": 31413,
  "suz": 24817,
  "▁pivo": 52465,
  "▁removed": 19171,
  "mbang": 4830,
  "▁있는데": 47809,
  "▁acid": 40890,
  "ène": 51707,
  "▁ඔලුව": 28617,
  "▁αλλαγή": 4503,
  "ಾಗುವ": 7742,
  "▁但是": 53603,
  "ೀಕರಣ": 893,
  "▁Walter": 52311,
  "▁müharibə": 3441,
  "▁чергу": 2792,
  "▁qetë": 13811,
  "三角": 1477,
  "▁astu": 49649,
  "刚": 34402,
  "▁költő": 24465,
  "US": 54248,
  "burg": 8827,
  "⌣": 32882,
  "▁Still": 43186,
  "終": 34155,
  "▁Í": 42914,
  "챔피언": 24691,
  "▁cover": 35527,
  "gora": 51107,
  "Av": 41466,
  "tsi": 20486,
  "▁41": 47651,
  "▁Eiropā": 20626,
  "▁слушна": 24397,
  "取引": 50565,
  "輌": 33199,
  "▁Srbi": 707,
  "▁forget": 55122,
  "要素": 48389,
  "會": 13150,
  "▁cause": 25969,
  "▁уга": 5344,
  "雙人": 20734,
  "▁kindel": 18131,
  "▁കാട്ട": 12838,
  "共建": 23868,
  "库": 35853,
  "▁ab": 13274,
  "መንግስት": 9840,
  "춘": 56256,
  "▁tap": 1840,
  "ాల్సి": 763,
  "▁(4)": 39447,
  "ឌី": 7572,
  "▁description": 51267,
  "ଯିବା": 25,
  "▁104": 36208,
  "ÉK": 3855,
  "wara": 47416,
  "▁alumnas": 27408,
  "▁24.": 4033,
  "在这个": 47412,
  "levi": 56014,
  "必ず": 44925,
  "▁auto": 18372,
  "เป็นเจ้าของ": 25095,
  "same": 39598,
  "तुर": 6192,
  "0-1": 52836,
  "许": 41794,
  "檳": 28955,
  "につきましては": 21437,
  "ilised": 8580,
  "堇": 31161,
  "にて": 36922,
  "糟": 17189,
  "ຫມາກ": 11278,
  "▁Landes": 42879,
  "▁organiz": 45562,
  "▁आफै": 8155,
  "bilis": 41741,
  "nod": 37348,
  "搖": 2541,
  "▁наявності": 2803,
  "▁Aero": 44584,
  "熟悉的": 10281,
  "▁apo": 48889,
  "▁applications": 54003,
  "▁tv": 43132,
  "דיא": 11545,
  "▁فورم": 4485,
  "esha": 37904,
  "▁KT": 56821,
  "▁Ever": 51775,
  "sor": 42893,
  "▁Gesundheits": 7012,
  "tot": 25093,
  "▁Forschung": 10550,
  "なんです": 6155,
  "鞋子": 20580,
  "▁unique": 38457,
  "떴": 33573,
  "▁এলাকা": 6402,
  "嚴": 41470,
  "bier": 42948,
  "zini": 37883,
  "▁Infatti": 17116,
  "spire": 55891,
  "▁უამრავი": 18266,
  "꿇": 33501,
  "飲": 42665,
  "自行車": 21396,
  "何も": 51260,
  "岱": 30234,
  "馬": 51822,
  "▁wal": 36955,
  "niya": 47776,
  "恶": 36198,
  "▁uniform": 46684,
  "▁monar": 57372,
  "▁filter": 41738,
  "▁okresu": 14180,
  "▁instead": 47553,
  "▁неопходн": 13280,
  "▁praw": 22627,
  "▁CR": 33896,
  "origine": 49242,
  "▁06": 42592,
  "äck": 22565,
  "▁분": 21365,
  "人們": 44634,
  "▁jej": 39913,
  "蛎": 32041,
  "nez": 20997,
  "անս": 2188,
  "egi": 20936,
  "宝宝": 48008,
  "院士": 22026,
  "▁хэрэглэгч": 6306,
  "rea": 7031,
  "▁ICT": 48882,
  "▁ochrony": 1003,
  "龙": 11345,
  "▁spendera": 22719,
  "▁dostupni": 25080,
  "有可能": 43115,
  "▁Department": 47270,
  "闌": 32102,
  "تني": 9922,
  "禮物": 55317,
  "▁риз": 6416,
  "▁Oni": 39653,
  "▁scen": 34025,
  "қай": 10761,
  "ĕ": 29542,
  "+2": 44462,
  "▁poet": 35918,
  "ОВЕ": 7821,
  "赋": 19135,
  "貳": 30881,
  "머니": 10795,
  "dv": 36626,
  "▁භාවිතය": 19519,
  "嗇": 33346,
  "▁νησί": 15809,
  "NEC": 55283,
  "▁qardaş": 11739,
  "▁กระ": 57300,
  "▁mõista": 10941,
  "▁Analisis": 28125,
  "배": 12319,
  "Diagnos": 7029,
  "高校": 37970,
  "▁lingua": 14035,
  "▁ε": 55854,
  "▁40": 2855,
  "▁cream": 31741,
  "ប្រាក់": 57366,
  "nings": 49157,
  "기도": 38806,
  "▁upload": 49392,
  "▁тратить": 23777,
  "☮": 33528,
  "▁дакладна": 19009,
  "所谓": 55447,
  "▁۲۵": 57236,
  "▁slow": 50091,
  "पूर्व": 2683,
  "klo": 17346,
  "▁Các": 55484,
  "hjälp": 24137,
  "▁свете": 7153,
  "쏜": 31376,
  "▁narra": 35705,
  "▁Bü": 45493,
  "褴": 33287,
  "Al": 46838,
  "▁monitoring": 56788,
  "▁요구": 49465,
  "gence": 2676,
  "不管是": 52655,
  "阁": 15709,
  "inc": 39167,
  "をして": 35362,
  "▁स्मार्ट": 12373,
  "мындан": 14325,
  "ί": 42651,
  "▁உள்": 6102,
  "ことも": 41664,
  "▁Solar": 45184,
  "▁Талас": 4383,
  "lji": 36014,
  "▁programme": 34484,
  "嶗": 33086,
  "▁foreign": 2742,
  "▁legea": 5411,
  "กเกอร์": 21156,
  "त्रिक": 16039,
  "lectiu": 3957,
  "!:)": 10947,
  "▁kunyit": 27831,
  "時尚": 40901,
  "▁Dessa": 47865,
  "▁NGO": 4719,
  "dĺž": 5606,
  "▁razlike": 19598,
  "▁Пят": 4206,
  "▁unna": 53702,
  "未成年": 14033,
  "phu": 47246,
  "▁libri": 35209,
  "减少": 38216,
  "gwyd": 8397,
  "鸡": 46453,
  "ruh": 18621,
  "忪": 33343,
  "▁mjedis": 21308,
  "▁Vind": 51673,
  "傷害": 55970,
  "▁(18": 50539,
  "iko": 45186,
  "sexual": 55212,
  "▁bármilyen": 6706,
  ":16": 26064,
  "▁päähän": 21694,
  "▁anjara": 20377,
  "▁전에": 50733,
  "▁ಕುಡಿಯುವ": 26503,
  "孝": 54010,
  "seizoen": 27524,
  "406": 12115,
  "ītes": 1245,
  "▁Flu": 38150,
  "▁Itali": 24233,
  "▁Beri": 48817,
  "锷": 32750,
  "lyn": 6357,
  "hai": 12473,
  "만을": 10036,
  "▁mare": 38644,
  "汇": 42107,
  "▁halal": 53917,
  "▁Dali": 48836,
  "LET": 34656,
  "▁уметник": 22566,
  "▁Movie": 917,
  "ᴘ": 31596,
  "rig": 1002,
  "▁Gero": 56704,
  "ሳሽ": 20576,
  "koppling": 14111,
  "牀": 30622,
  "▁instituţii": 19258,
  "フォルダ": 26738,
  "▁utilizarea": 261,
  "▁colo": 41223,
  "kas": 31611,
  "▁honor": 22673,
  "音": 47797,
  "寐": 29831,
  "شرب": 4015,
  "規劃": 38122,
  "▁quantitat": 54563,
  "▁salam": 40219,
  "▁rente": 56946,
  "遠": 3858,
  "쑨": 33040,
  "haf": 38027,
  "▁agradecer": 7955,
  "ene": 3823,
  "列表": 922,
  "▁ম্যাচ": 19326,
  "▁Indonésia": 19906,
  "▁Закарпат": 8878,
  "u": 36967,
  "▁Gest": 52365,
  "ෙමින්": 6560,
  "▁mod": 35075,
  "▁Gaga": 56112,
  "▁болуш": 7864,
  "悸": 29555,
  "▁Ung": 39551,
  "▁Hóa": 5045,
  "▁sta": 20631,
  "▁손": 23421,
  "▁sop": 42550,
  "mbuk": 4733,
  "▁porte": 27715,
  "▁Tá": 41194,
  "zare": 42752,
  "खत": 8666,
  "▁Ved": 52511,
  "▁menular": 17613,
  "▁hand": 37842,
  "¥": 36748,
  "▁остаются": 23865,
  "▁Ama": 53815,
  "▁지정": 3831,
  "Una": 1677,
  "▁auditori": 55080,
  "Në": 4958,
  "繁忙": 23013,
  "titude": 38021,
  "TRE": 45056,
  "loop": 35179,
  "▁Boeing": 3212,
  "羥": 31551,
  "▁begrüßen": 26408,
  "▁Mihemed": 18240,
  "▁Ind": 10834,
  "ניתוח": 17456,
  "围绕": 53767,
  "보다": 24688,
  "禹": 29522,
  "▁Luther": 54969,
  "Nov": 46893,
  "▁वाह": 56924,
  "▁फायदे": 183,
  "各项": 50382,
  "Fi": 46697,
  "إجتماع": 28800,
  "viti": 41170,
  "▁objektov": 17966,
  "莊": 47176,
  "▁нысан": 6672,
  "▁populiariausi": 24539,
  "росс": 1859,
  "另一个": 53224,
  "デバイス": 26858,
  "▁increase": 43405,
  "▁neanche": 19786,
  "▁قيد": 8830,
  "puter": 8581,
  "文件": 17618,
  "▁김": 52840,
  "顷": 29632,
  "षु": 11315,
  "อเมริกัน": 27634,
  "▁Aba": 41851,
  "eo": 23425,
  "ulo": 1023,
  "봣": 33164,
  "ily": 22248,
  "sar": 39903,
  "▁ወያኔ": 423,
  "27)": 52436,
  "뛸": 30976,
  "イス": 56107,
  "名单": 55058,
  "▁24-": 33945,
  "▁Helsinki": 38690,
  "nico": 5440,
  "▁either": 39573,
  "葵": 26052,
  "ory": 36088,
  "魷": 30242,
  "▁zdziwi": 27559,
  "▁fauna": 3422,
  "▁koi": 40073,
  "▁deputetë": 13783,
  "陌生": 52749,
  "nama": 22856,
  "今天的": 57445,
  "▁spirit": 43663,
  "HF": 48310,
  "꺾": 33715,
  "对手": 67,
  "魂": 53091,
  "magi": 55197,
  "CES": 49010,
  "蟀": 33444,
  "hôtel": 9430,
  "nju": 39301,
  "खेल": 12883,
  "랏": 31235,
  "▁bili": 51588,
  "▁odwrot": 28659,
  "miste": 52567,
  "COS": 56440,
  "▁Nga": 6968,
  "เจ๋ง": 28043,
  "粥": 24502,
  "▁Leo": 35449,
  "handler": 50512,
  "▁Afg": 45322,
  "Co": 1635,
  "嗎": 4166,
  "どういう": 18034,
  "▁ev": 37361,
  "keverék": 25006,
  "羡慕": 25376,
  "▁kar": 4651,
  "▁Fair": 37714,
  "हामी": 17866,
  "▁Blo": 44318,
  "▁Desc": 48727,
  "ヘ": 352,
  "▁five": 40807,
  "▁locales": 53074,
  "▁coopera": 45358,
  "lehekülg": 25633,
  "▁2.2": 39982,
  "hivatal": 57442,
  "▁Gav": 53858,
  "▁Kedudukan": 28855,
  "dıklarını": 7783,
  "핵": 53655,
  "真剣に": 28348,
  "土曜日": 26404,
  "▁정보를": 52148,
  "表達": 55530,
  "かけ": 45233,
  "作業": 34287,
  "되지": 44448,
  "わざわざ": 27791,
  "ouse": 43458,
  "▁division": 55421,
  "oblikovan": 19209,
  "锗": 32982,
  "schütz": 15813,
  "tem": 35741,
  "▁создавать": 16771,
  "▁SS": 35641,
  "▁Cá": 41662,
  "▁kalder": 18987,
  "▁此外": 50440,
  "▁chances": 56922,
  "▁gazdaság": 3502,
  "ــــــ": 21474,
  "ाभ्यां": 27886,
  "opettaja": 26030,
  "▁means": 34601,
  "ҮСҮ": 28834,
  "▁trying": 36414,
  "mati": 15112,
  "rij": 21620,
  "Ź": 14355,
  "tsch": 48186,
  "On": 22638,
  "tais": 1235,
  "८८": 24212,
  "▁eftirfarandi": 8953,
  "닷컴": 20168,
  "▁identidad": 13943,
  "ðu": 4092,
  "patu": 51651,
  "✖": 29255,
  "▁Mia": 41617,
  "▁Тарас": 421,
  "▁Aff": 45888,
  "dö": 47242,
  "▁обязательств": 5823,
  "▁liquid": 40240,
  "▁Jong": 41151,
  "▁دۆلەتلەر": 26515,
  "▁Dadurch": 15175,
  "安全": 42267,
  "tinę": 10373,
  "</s_nm>": 57527,
  "▁ходи": 9821,
  "tòria": 4388,
  "▁flow": 53985,
  "▁βαθιά": 23767,
  "isi": 34729,
  "▁when": 36700,
  "mach": 40827,
  "▁claus": 49431,
  "▁arriver": 430,
  "玮": 30433,
  "▁vali": 16442,
  "▁100": 52285,
  "គុណ": 12704,
  "칼": 51242,
  "laden": 41716,
  "▁Usa": 49270,
  "↯": 32385,
  "梶": 31311,
  "bec": 37338,
  "fusión": 12272,
  "▁изпълнението": 19576,
  "▁sui": 3722,
  "▁истакна": 1533,
  "Natur": 11933,
  "▁കോട്ടയം": 18510,
  "▁Wirkung": 7233,
  "慜": 33183,
  "整體": 46466,
  "たら": 36481,
  "빔": 29354,
  "無限": 4860,
  "▁jeans": 49501,
  "▁Všetci": 27751,
  "stiti": 43785,
  "shed": 48397,
  "1998": 43740,
  "賄": 29316,
  "▁színes": 14279,
  "▁panduan": 11966,
  "diyo": 53515,
  "याः": 6926,
  "瑚": 33756,
  "موت": 7287,
  "瞒": 27687,
  "▁bur": 48682,
  "wethu": 19240,
  "▁assoluta": 28234,
  "▁사용할": 53002,
  "褂": 31445,
  "褪": 29191,
  "▁Bay": 56575,
  "▁H": 45235,
  "▁1-1": 48115,
  "▁Magnet": 12217,
  "gjör": 3748,
  "▁6-": 7473,
  "▁കാണാൻ": 25263,
  "abad": 34892,
  "▁Детски": 22326,
  "אָק": 25224,
  "▁Minu": 28653,
  "▁3.5": 39097,
  "言って": 43333,
  "聯絡": 53731,
  "terne": 40134,
  "嬛": 33392,
  "▁রাজধানী": 18228,
  "凱": 50789,
  "ulla": 22867,
  "▁Ax": 41029,
  "ses": 45892,
  "၁၀": 2771,
  "▁দিয়েছে": 16887,
  "抒": 28888,
  "▁محم": 12736,
  "🇸": 33598,
  "▁بېرته": 9758,
  "プライベート": 28149,
  "▁uskon": 3446,
  "заавал": 14380,
  "草莓": 21430,
  "▁καφέ": 12847,
  "葺": 31498,
  "▁సందర్భ": 20241,
  "▁gcea": 17138,
  "▁iborat": 5629,
  "verk": 385,
  "▁Immobilien": 11876,
  "wini": 53961,
  "▁Reform": 49882,
  "不久": 49928,
  "พิพิธภัณฑ์": 18972,
  "IĆ": 4275,
  "▁Open": 8659,
  "▁18.00": 44424,
  "▁Tad": 35745,
  "ರಾಗಿದ್ದ": 22030,
  "同样": 37266,
  "evo": 41129,
  "▁ярилц": 3206,
  "象": 28533,
  "戴": 27411,
  "競": 51606,
  "▁Cuba": 39380,
  "▁e": 34620,
  "▁camina": 14178,
  "▁nascut": 10044,
  "▁Məcəllə": 16057,
  "▁Jar": 28774,
  "作用": 14970,
  "▁prote": 9223,
  "▁lajmi": 16650,
  "▁Oxford": 40507,
  "რიალებ": 28187,
  "훔": 30208,
  "익": 28389,
  "逮": 29638,
  "▁thread": 54092,
  "ાઓ": 57454,
  "▁(24": 40390,
  "▁1907": 55233,
  "御": 38435,
  "NU": 37077,
  "वेल": 4311,
  "store": 41570,
  "ilu": 5502,
  "遐": 30158,
  "▁16": 46519,
  "▁ଦେଇଥିବା": 26973,
  "▁amalga": 36771,
  "tó": 44972,
  "ကင်း": 23829,
  "▁आयो": 6789,
  "吆": 31370,
  "▁full": 40922,
  "终于": 40334,
  "合わせ": 55730,
  "举办": 37840,
  "ά": 5185,
  "ettes": 54497,
  "▁tube": 40718,
  "เบร": 17616,
  "▁Goran": 3340,
  "ก็สามารถ": 9172,
  "доста": 14346,
  "▁kiinnostu": 8688,
  "skutečn": 3546,
  "▁follow": 35414,
  "▁코드": 8457,
  "▁अशोक": 5407,
  "▁現在": 49800,
  "▁gjennomføre": 13672,
  "ätt": 36931,
  "▁materiałów": 56936,
  "相关的": 53402,
  "▁Charlotte": 52047,
  "▁జరిగి": 7812,
  "保證": 46725,
  "▁top": 34459,
  "till": 35972,
  "▁кропка": 23162,
  "チャ": 45682,
  "▁Штип": 23630,
  "fier": 50536,
  "leng": 28404,
  "▁Mokslas": 11558,
  "tlen": 44874,
  "▁zlorab": 26147,
  "拒绝": 51913,
  "pte": 36346,
  "scul": 51054,
  "▁එරෙහි": 21641,
  "想着": 11863,
  "▁decor": 50293,
  "糀": 32768,
  "锒": 33172,
  "▁mari": 45479,
  "▁installation": 46103,
  "apparat": 47317,
  "荆": 29337,
  "▁ಸಹಾಯಕ": 25102,
  "▁gyógyít": 23230,
  "感情": 35599,
  "▁Dance": 48356,
  "怙": 32444,
  "lal": 15334,
  "ISE": 54567,
  "model": 43554,
  "义": 38256,
  "▁혹시": 19826,
  "▁τρίτη": 25092,
  "▁presiune": 22978,
  "váz": 2534,
  "存在": 54965,
  "靛": 32131,
  "▁ڌيان": 26365,
  "viet": 36756,
  "We": 5408,
  "躾": 31497,
  "사가": 50687,
  "▁sold": 44347,
  "▁Leh": 43402,
  "▁2012,": 35034,
  "1952": 22905,
  ";": 50155,
  "こそ": 53411,
  "疑惑": 16123,
  "▁ak": 37819,
  "▁ээж": 4091,
  "▁bara": 34317,
  "rf": 25828,
  "▁laboratori": 54021,
  "욜": 31125,
  "역": 7008,
  "▁stare": 20666,
  "▁resources": 47893,
  "括": 7162,
  "▁reto": 39154,
  ":39": 37550,
  "▁Hé": 54377,
  "дент": 7329,
  "歌詞": 11476,
  "上海": 2924,
  "fi": 735,
  "期待": 10887,
  "汩": 32105,
  "▁changes": 47906,
  "BEL": 7366,
  "nado": 54643,
  "牆": 51454,
  "지역": 46555,
  "DIG": 4370,
  "▁SOS": 50487,
  "特别是": 39975,
  "都很": 46284,
  "纽约": 52907,
  "îtî": 3289,
  "▁ngoái": 27821,
  "▁höfðu": 7126,
  "気が": 43234,
  "一直是": 7440,
  "pression": 42477,
  "报警": 22427,
  "▁tuttavia": 10269,
  "ផ្កា": 25353,
  "צופים": 21014,
  "極": 7094,
  "▁OR": 37040,
  "▁there": 34554,
  "▁Council": 49389,
  "▁гимназия": 20510,
  "▁Gian": 48040,
  "难题": 15777,
  "럼": 49423,
  "▁Taiwan": 53749,
  "▁Marie": 30076,
  "访": 38580,
  "ukan": 22689,
  "▁Kis": 28000,
  "世纪": 40352,
  "▁nie": 34531,
  "▁ସ୍ଥାନ": 6695,
  "▁taraqqiyot": 24085,
  "▁komentáre": 12285,
  "基金會": 3016,
  "맡": 33820,
  "▁shvati": 7614,
  "▁conce": 35444,
  "缺": 26438,
  "▁Terdapat": 3808,
  "된다": 34989,
  "ibili": 38315,
  "缮": 33552,
  "▁remunera": 11160,
  "ZER": 46343,
  "▁current": 40795,
  "ประสบ": 15985,
  "▁–": 41285,
  "▁colectiva": 14326,
  "lsen": 38329,
  "導演": 56080,
  "▁programvare": 22121,
  "Ex": 20711,
  "孱": 33344,
  "ys": 42237,
  "▁niye": 2045,
  "迷你": 17022,
  "▁صوفي": 22477,
  "▁የዛሬ": 20808,
  "柏": 52446,
  "功能": 53784,
  "▁bezahlt": 21139,
  "的情况": 39794,
  "▁Walau": 12129,
  "LER": 22687,
  "▁movies": 49935,
  "晟": 29489,
  "露": 36045,
  "ストレス": 55869,
  "▁1973": 35710,
  "▁Virtual": 50240,
  "▁robi": 19561,
  "▁공부": 53226,
  "vaks": 929,
  "▁}": 43609,
  "’": 33855,
  "▁Pag": 53129,
  ".4.": 35604,
  "▁герой": 4622,
  "▁dop": 54603,
  "駐": 50398,
  "दम": 12787,
  "АННЯ": 23519,
  "enka": 38994,
  "▁ارتقا": 8237,
  "▁bersiap": 28735,
  "▁Clinton": 45040,
  "wen": 4297,
  "▁pseudo": 50495,
  "▁discret": 52633,
  "ύπα": 18780,
  "tiga": 21640,
  "▁laisvės": 25477,
  "患者": 15538,
  "person": 36147,
  "▁पाना": 17324,
  "▁ပဲခူး": 26683,
  "מינ": 4406,
  "▁sədr": 14206,
  "酊": 32174,
  "sø": 40385,
  "▁Hem": 10433,
  "maya": 815,
  "▁앞에": 15388,
  "快樂": 47739,
  "가는": 44964,
  "重视": 43336,
  "▁Tun": 10848,
  "דון": 8460,
  "▁fylla": 12149,
  "嗅": 25651,
  "▁tract": 57157,
  "▁அன்பு": 4653,
  "▁Natura": 49707,
  "▁Kann": 42517,
  "▁صحرا": 20949,
  "▁nebolo": 8813,
  "▁segment": 37043,
  "koma": 45563,
  "హు": 4308,
  "lant": 36065,
  "▁необхідних": 24402,
  "▁จุด": 192,
  "硕士": 7982,
  "▁note": 23044,
  "▁atractivo": 12822,
  "▁installer": 50448,
  "稈": 31398,
  "missi": 54036,
  "tnik": 49159,
  "ell": 48616,
  "▁Koska": 4477,
  "▁cab": 39205,
  "▁Wert": 37938,
  "wu": 15419,
  "▁1,3": 41965,
  "ядна": 57421,
  "▁Nog": 49171,
  "ದಾಗ": 6490,
  "▁Intel": 28450,
  "▁mazu": 15212,
  "▁helburu": 680,
  "▁Hormon": 18336,
  "▁tum": 76,
  "잴": 32667,
  "▁ogłosz": 14469,
  "的朋友": 36773,
  "248": 2777,
  "UD": 34266,
  "isolation": 25426,
  "toma": 47213,
  "▁Ziel": 31488,
  "▁Wtedy": 21373,
  "▁نقدی": 18465,
  "弛": 28897,
  "把握": 39699,
  "men": 1418,
  "匍": 31714,
  "እንግሊዝ": 19662,
  "將": 27495,
  "遽": 29999,
  "进程": 1335,
  "▁magni": 55400,
  "ション": 53283,
  "▁starting": 49874,
  "▁contamos": 15378,
  "SO": 7592,
  "▁cuairt": 12629,
  "tame": 41973,
  "龋": 31400,
  "▁parasito": 19460,
  "全国各地": 19427,
  "▁Glas": 37088,
  "▁Lle": 38285,
  "▁päätös": 8918,
  "すっかり": 26323,
  "اعتماد": 10541,
  "▁heitir": 23059,
  "▁Domine": 54390,
  "28)": 51507,
  "▁deal": 37778,
  "▁riep": 6780,
  "琍": 31246,
  "dub": 40489,
  "▁natural": 46464,
  "tici": 38621,
  "▁sanayi": 5645,
  "▁kommun": 26990,
  "は": 37382,
  "drag": 6211,
  "kaya": 40235,
  "▁sauce": 9724,
  "▁krijimin": 24304,
  "分類": 50853,
  "诶": 30479,
  "制度": 1276,
  "▁contra": 27101,
  "▁svarað": 17172,
  "谶": 32990,
  "ndu": 6241,
  "sy": 42528,
  "▁těla": 16712,
  "茹": 28797,
  "▁datumoj": 57353,
  "昵": 30604,
  "▁අඳුර": 27971,
  "RAI": 979,
  "現状": 11411,
  "▁Gesellschaft": 41770,
  "眠": 47073,
  "腾讯": 3574,
  "薹": 32701,
  "넉": 28064,
  "▁wichtiger": 5311,
  "durchschnittlich": 16637,
  "蜒": 30332,
  "▁Krom": 7099,
  "▁кетип": 5519,
  "ቮ": 29323,
  "keel": 75,
  "isena": 54017,
  "▁일을": 54507,
  "zu": 15517,
  "▁콘텐츠": 51960,
  "▁Flori": 47079,
  "ʼ": 42071,
  "窓": 18823,
  "▁Έκ": 17097,
  "▁München": 40863,
  "▁моделі": 5877,
  "ern": 54970,
  "▁الثورة": 6759,
  "并且": 20102,
  "ക്ഷന്": 15631,
  "早餐": 46250,
  "лекс": 5451,
  "ሸዋ": 24417,
  "aza": 3660,
  "ទ្រង់": 23337,
  "▁declara": 24907,
  "mind": 38429,
  "特に": 35003,
  "皆": 33871,
  "不妨": 56594,
  "▁ڏيندي": 16763,
  "dal": 31288,
  "▁ce": 39678,
  "瘓": 33569,
  "除": 56443,
  "dula": 47333,
  "▁नेताओं": 14297,
  "▁хүлээж": 12024,
  "FET": 20438,
  "▁ашиглаж": 19073,
  "search": 53892,
  "운동": 53376,
  "笆": 31851,
  "瞬": 15840,
  "▁ঘরে": 16871,
  "▁Neu": 2734,
  "혐": 29181,
  "▁cose": 35076,
  "ณา": 5702,
  "▁===": 18813,
  "▁ind": 34842,
  "▁Jor": 52490,
  "咪": 12628,
  "વાઇ": 19851,
  "azio": 38452,
  "▁జిల్లాలో": 5323,
  "▁anne": 40340,
  "▁việt": 18356,
  "▁can": 53017,
  "尧": 30313,
  "ホワイト": 23837,
  "反映": 37901,
  "贿": 24669,
  "▁PELAJAR": 28737,
  "▁Sak": 26382,
  "蝰": 33062,
  "▁instituciones": 4711,
  "出售": 55519,
  "经常": 36179,
  "▁Arbeit": 22170,
  "▁storica": 20502,
  "mania": 50423,
  "▁Eftersom": 4905,
  "▁avant": 56477,
  "▁nemají": 17868,
  "しよう": 52521,
  "稿": 40860,
  "▁podkreśla": 13802,
  "好像": 35530,
  "▁chuột": 16524,
  "stiden": 11972,
  "驹": 31222,
  "ጇ": 33730,
  "way": 50752,
  "especial": 13502,
  "▁hotel": 35886,
  "funktionen": 18112,
  "鬓": 31947,
  "▁Brin": 7237,
  "ντι": 156,
  "apa": 48102,
  "▁ЦК": 13239,
  "ELA": 45994,
  "이었다": 45063,
  "▁loodud": 16143,
  "打开": 44661,
  "▁Pea": 55714,
  "防止": 42518,
  "▁Spencer": 21443,
  "汉": 38826,
  "藉": 56002,
  "▁მომი": 17814,
  "流程": 41706,
  "GC": 49123,
  "áků": 10112,
  "ምክንያ": 21290,
  "▁மருத்துவம்": 20183,
  "▁Vila": 28256,
  "于": 27162,
  "▁ಆತ": 19745,
  "痒": 26247,
  "AL": 51710,
  "▁seda": 46946,
  "usten": 40849,
  "iselle": 38013,
  "태": 13648,
  "▁αδελφ": 15558,
  "▁Ari": 38757,
  "лорун": 22150,
  "慍": 32906,
  "▁ejusdem": 25617,
  "眾": 40636,
  "of": 40912,
  "▁زهرا": 14865,
  "忠": 39229,
  "▁رساند": 57440,
  "▁되고": 54149,
  "▁Informoj": 56909,
  "曾经": 38808,
  "ento": 22397,
  "ตุ๊กตา": 25734,
  "▁Novi": 27563,
  "開発": 42144,
  "▁요": 41038,
  "700": 12219,
  "▁잠": 46936,
  "磷": 24954,
  "▁Taka": 46775,
  "図書館": 25794,
  "喜歡": 21129,
  "instant": 10411,
  "▁working": 23320,
  "▁берүүнү": 25706,
  "rke": 11706,
  "▁դիմում": 2130,
  "Virumaa": 25351,
  "гаараа": 17057,
  "тото": 2841,
  "▁jautājums": 3805,
  "▁Vyhľadávanie": 28601,
  "精度": 20579,
  "塊": 40950,
  "▁ಲೋಕ": 1769,
  "▁postare": 15372,
  "機": 38652,
  "▁sele": 37680,
  "▁kelainan": 27757,
  "簌": 31592,
  "▁acce": 41164,
  "苙": 32875,
  "▁ಬಳಕೆ": 231,
  "strada": 6584,
  "legal": 54083,
  "▁érint": 8538,
  "အဆင့္": 24230,
  "榷": 31564,
  "ndis": 41301,
  "": 33461,
  "▁vương": 14338,
  "▁Kina": 37261,
  "ქრის": 23821,
  "uomo": 43504,
  "ตึก": 16462,
  "个性化": 23499,
  "▁Len": 18674,
  "▁consult": 50852,
  "▁kook": 54807,
  "うちに": 56610,
  "▁Норма": 10090,
  "werp": 41943,
  "วิชาชีพ": 21854,
  "ēs": 23504,
  "▁dječak": 20927,
  "розвива": 21006,
  "▁zeleno": 22138,
  "采": 39146,
  "▁profit": 18920,
  "▁첫": 35108,
  "▁millest": 687,
  "荔": 29124,
  "說": 34374,
  "鄞": 33053,
  "itur": 34172,
  "▁dico": 52187,
  "▁slippe": 11196,
  "▁swa": 48651,
  "▁театар": 18764,
  "pse": 41509,
  "▁vysoké": 57152,
  "➯": 33191,
  "自然": 49825,
  "▁7-": 9979,
  "▁vairākas": 15295,
  "▁Spanyol": 12039,
  "tori": 38934,
  "arrêter": 14053,
  "▁തകര്": 7658,
  "▁privati": 55670,
  "▁Heng": 18207,
  "▁finally": 51510,
  "lovi": 50127,
  "ლოდ": 3960,
  "hee": 46203,
  "▁Yıldırım": 7061,
  "▁Fr": 25332,
  "▁Styrelsen": 23263,
  "投票": 47401,
  "实": 5735,
  "▁Conven": 47801,
  "ălă": 17007,
  "▁አስፈላጊ": 3978,
  "cc": 157,
  "チェック": 44958,
  "manni": 6895,
  "썽": 33377,
  "▁gawe": 8494,
  "还没有": 50641,
  "榆": 29588,
  "▁SP": 5176,
  "όσ": 7303,
  "▁realist": 46585,
  "內心": 8643,
  "iseach": 55861,
  "ており": 1251,
  "▁lod": 41407,
  "အမွတ္": 24825,
  "▁Austri": 51067,
  "sindən": 2479,
  "▁rescat": 9993,
  "那個": 50702,
  "bung": 24626,
  "娩": 27902,
  "▁personas": 49127,
  "▁400": 39832,
  "▁spi": 14518,
  "▁الخلاف": 19781,
  "▁Fili": 49884,
  "碌": 29540,
  "tú": 5816,
  "រង្វាន់": 22072,
  "▁медиуми": 178,
  "▁39": 44909,
  "▓": 30375,
  "▁дайым": 7756,
  "úr": 6507,
  "▁Lotto": 19328,
  "▁uma": 51794,
  "韬": 30451,
  "▁යාම": 1151,
  "认可": 53155,
  "俄罗斯": 34386,
  "▁σχεδια": 20692,
  "▁maksaa": 1986,
  "魯": 47318,
  "女子": 37745,
  "du": 48997,
  "复合": 25777,
  "ttomia": 5938,
  "▁trend": 6912,
  "▁оқиға": 9994,
  "込んで": 53307,
  "▁Horrela": 15497,
  "척": 48155,
  "▁գործերի": 12233,
  "으면": 38666,
  "▁maahan": 1595,
  "▁цензур": 22635,
  "둡": 30336,
  "▁ڪاب": 21957,
  "▁vlerë": 5349,
  "不可": 15901,
  "▁212": 52299,
  "▁keturi": 998,
  "▁클래식": 28053,
  "较为": 12655,
  "见面": 13575,
  "尺": 52937,
  "▁consulter": 7104,
  "徵": 41366,
  "▁Blade": 9936,
  "▁миг": 2168,
  "▁pametni": 18614,
  "樂": 331,
  "telia": 48538,
  "▁Ligi": 39860,
  "aiky": 3826,
  "▁الاجتماع": 8150,
  "焉": 29444,
  "▁Casino": 10220,
  "重要": 54504,
  "▁koa": 39273,
  "IMA": 34937,
  "ប្រជុំ": 10003,
  "yog": 47851,
  "▁kondicion": 17227,
  "ule": 54312,
  "▁이끌어": 26257,
  "▁firenena": 2603,
  "▁دفن": 11999,
  "▁Sand": 8727,
  "▁დოლარი": 16243,
  "褶": 30667,
  "ido": 39256,
  "にもかかわらず": 21507,
  "▁Pár": 57444,
  "▁प्रतिष्ठान": 14146,
  "위원": 3915,
  "RG": 42597,
  "▁المص": 2920,
  "▁acordar": 18186,
  "漱": 29606,
  "▁ikuskizun": 25059,
  "憬": 32622,
  "侵": 52133,
  "▁Gw": 44164,
  "fuz": 47173,
  "tionis": 44915,
  "には": 35351,
  "▁trifft": 15092,
  "1500": 51678,
  "尚未": 54438,
  "▁cunostinte": 28483,
  "内容": 52483,
  "岌": 33606,
  "▁utili": 21219,
  "▁വച്ച്": 12263,
  "▁Sommer": 35787,
  "▁шампионат": 23881,
  "ସାଇ": 13778,
  "諄": 33122,
  "top": 9264,
  "▁తదితర": 25796,
  "▁ayrılmış": 28494,
  "▁இய": 39,
  "seri": 40630,
  "šajte": 10446,
  "▁redatelj": 24634,
  "lott": 42256,
  "新聞": 18782,
  "護": 25679,
  "kereskedelm": 28093,
  "▁Bürger": 44751,
  "▁Vara": 40887,
  "▁Sebastian": 45762,
  "▁Eindhoven": 19554,
  "格": 47244,
  "菲": 38278,
  "電影": 16193,
  "▁comisión": 8689,
  "▁Edi": 16516,
  "heed": 53884,
  "▁employés": 26359,
  "ライン": 56630,
  "▁xxx": 22262,
  "全身": 48582,
  "埋": 43035,
  "▁normal": 38232,
  "嶽": 30594,
  "▁noon": 534,
  "는데": 21549,
  "を見て": 38356,
  "▁voyage": 39930,
  "商務": 54950,
  "▁الحسن": 849,
  "ვდნენ": 13849,
  "ILL": 45504,
  "▁pałac": 28745,
  "nula": 45944,
  "緯": 24017,
  "▁появится": 19652,
  "280": 54529,
  "谐": 30626,
  "ZK": 1207,
  "猫": 37753,
  "▁antico": 4354,
  "▁pošk": 17595,
  "▁belas": 5776,
  "綸": 30610,
  "▁Dialog": 53416,
  "确定": 36794,
  "▁15.": 47049,
  "▁udenfor": 20726,
  "ttynä": 21570,
  "▁(0": 25645,
  "硝": 28716,
  "GET": 52094,
  "陷阱": 23607,
  "ეკონომი": 27106,
  "怦": 33581,
  "▁lelkes": 21691,
  "自行": 45961,
  "ssar": 53567,
  "深度": 48767,
  "▁Bill": 21861,
  "하여": 52201,
  "病": 45998,
  "озу": 57496,
  "▁Alpha": 51192,
  "ագրության": 16471,
  "詬": 33403,
  "▁mléko": 28782,
  "깥": 33705,
  "पत्": 939,
  "▁soc": 39161,
  "▁κινήσεις": 22943,
  "出现": 7831,
  "鹭": 30996,
  "▁stato": 47606,
  "▁facto": 50011,
  "▁μπορώ": 11366,
  "šak": 11087,
  "nē": 36818,
  "▁Rafael": 47396,
  "▁개발": 37151,
  "▁profite": 8480,
  "▁Már": 34166,
  "▁простой": 11925,
  "▁istifadəyə": 17342,
  "ane": 46616,
  "엎": 30414,
  "986": 22819,
  "莒": 31240,
  "灞": 31770,
  "厕所": 20872,
  "メイク": 22684,
  "他": 53561,
  "ssé": 42432,
  "ギフト": 27382,
  "▁consultant": 7281,
  "▁DC": 36367,
  "▁door": 20395,
  "▁ambaŭ": 10591,
  "鯁": 32841,
  "接著": 2420,
  "alumnat": 20984,
  "▁Material": 28427,
  "Th": 23483,
  "的需求": 38202,
  "砾": 32083,
  "網購": 15358,
  "▁sæson": 10170,
  "evro": 6265,
  "ppet": 45585,
  "▁песна": 20832,
  "▁manastir": 28632,
  "ປະຈໍາປີ": 24235,
  "hero": 55131,
  "posit": 51338,
  "landığını": 21653,
  "ungi": 43178,
  "▁серия": 57305,
  "測驗": 27107,
  "kel": 34180,
  "▁하이": 55726,
  "郭": 44113,
  "▁గడి": 19260,
  "栏": 1049,
  "▁talk": 25705,
  "📰": 33376,
  "īgiem": 11482,
  "▁200": 17805,
  "▁Comhairle": 3157,
  "úcháin": 4833,
  "看護師": 17255,
  "まる": 48617,
  "▁पत": 1583,
  "條件": 42061,
  "▁astronomi": 4287,
  "▁1920": 27102,
  "考え": 27736,
  "になって": 10542,
  "mpiä": 14930,
  "見て": 42006,
  "吸引": 33863,
  "+1": 25116,
  "zier": 51404,
  "雒": 32115,
  "だんだん": 28550,
  "▁obitelj": 8327,
  "▁alian": 2979,
  "▁şeker": 2914,
  "▁DKT": 20938,
  "/09": 47149,
  "volution": 9094,
  "▁Acer": 5392,
  "▁ederiz": 18604,
  "有一天": 57116,
  "▁recicla": 57201,
  "vig": 28815,
  "라는": 19166,
  "持續": 34624,
  "Chi": 43425,
  "▁умира": 2736,
  "ศพ": 5417,
  "йтін": 6356,
  "hib": 34240,
  "▁Regierung": 51518,
  "調查": 39651,
  "lise": 7007,
  "▁Verbesserung": 11887,
  "▁raisons": 6990,
  "▁Llan": 43608,
  "邯": 29956,
  "▁handlekurv": 28298,
  "▁Charles": 35098,
  "譞": 32992,
  "▁Picha": 1988,
  "▁Vorjahr": 22868,
  "▁nguyệt": 26349,
  "リティ": 19470,
  "▁Rah": 36341,
  "▁пријава": 15661,
  "责": 45867,
  "▁rental": 7277,
  "▁Prim": 41116,
  "sav": 38056,
  "呻": 29945,
  "很大的": 49296,
  "负担": 10248,
  "▁tháinig": 5738,
  "▁răni": 18617,
  "hna": 13131,
  "ാലോ": 16005,
  "涧": 31326,
  "ˌ": 31285,
  "OSPITAL": 28776,
  "▁Even": 36300,
  "▁правду": 15814,
  "▁Paşa": 3424,
  "没有": 35925,
  "现在": 43782,
  "▁그의": 52155,
  "dak": 26073,
  "▁Định": 6229,
  "رجل": 19841,
  "▁Pisa": 56096,
  "МБ": 8867,
  "是他": 203,
  "seg": 34000,
  "谜": 29035,
  "‘": 38460,
  "▁tăi": 10076,
  "▁રાખો": 19948,
  "▁تكن": 496,
  "▁militar": 37273,
  "貫": 16562,
  "ザ": 46020,
  "▁fo": 45438,
  "▁Klaus": 41059,
  "▁bicikl": 3506,
  "lere": 48220,
  "▁prova": 8322,
  "煞": 25105,
  "являється": 8257,
  "ເຫນືອ": 56894,
  "▁છોડી": 16416,
  "▁Engeland": 22234,
  "سود": 1981,
  "▁vaso": 14927,
  "述": 34123,
  "約": 43381,
  "大": 45268,
  "▁1918": 30491,
  "▁site": 17430,
  "▁Cic": 55775,
  "丁寧に": 14929,
  "▁field": 41095,
  "시": 24937,
  "▁solicita": 35924,
  "กระชับ": 15711,
  "-08": 55365,
  "▁разгледа": 2859,
  "▁Онда": 13886,
  "▁Koh": 35623,
  "ធម៌": 15560,
  "持续": 28251,
  "▁Baca": 41667,
  "▁собственность": 17520,
  "▁ABC": 42138,
  "淞": 31556,
  "▁paro": 36239,
  "23": 38611,
  "严肃": 17909,
  "▁dela": 51153,
  "율": 38502,
  "▁toimuva": 6898,
  "하지만": 55059,
  "ാവസ്ഥ": 20602,
  "▁окутуу": 20802,
  "ישה": 3759,
  "aus": 47065,
  "证明": 40619,
  "▁колдонуучу": 21860,
  "究竟": 51998,
  "אפט": 10996,
  "▁విష": 18577,
  "lä": 45459,
  "▁regard": 35272,
  "껍": 33738,
  "▁kasutamise": 2218,
  "puli": 56561,
  "▁покушај": 14562,
  "、": 38099,
  "▁학습": 5545,
  "ఝ": 29115,
  "▁ئىزچىل": 25210,
  "▁forberede": 21195,
  "▁اخرى": 9570,
  "ffy": 51062,
  "▁gesamte": 3733,
  "GA": 11612,
  "崇拜": 26450,
  "ezi": 2015,
  "今日": 25240,
  "▁velkou": 14428,
  "葫": 29410,
  "bbe": 39642,
  "Kat": 52137,
  "▁nostri": 4697,
  "財": 36767,
  "眼中": 8519,
  "▁жалост": 20925,
  "▁colle": 47095,
  "▁особе": 12719,
  "飹": 32733,
  "俋": 33190,
  "▁Á": 37958,
  "ແດນ": 19551,
  "襦": 32743,
  "Cənub": 22755,
  "maz": 12615,
  "rain": 43072,
  "開": 38185,
  "master": 42098,
  "▁Instant": 15591,
  "▁live": 48828,
  "岁": 8088,
  "認": 50184,
  "▁shkrim": 829,
  "強化": 52213,
  "zag": 3704,
  "力量": 34209,
  "▁интересу": 10963,
  "▁pistol": 50824,
  "晌": 31090,
  "▁prosjekt": 857,
  "▁ऋण": 1341,
  "▁efterfølgende": 15923,
  "▁science": 40152,
  "▁outside": 43248,
  "▁Botschaft": 20201,
  "擞": 31705,
  "▁односа": 6761,
  "LINK": 56679,
  "▁들어가": 57511,
  "L": 53958,
  "束": 52568,
  "รถไฟ": 7610,
  "iștii": 16651,
  "constructie": 17169,
  "XI": 44265,
  "ຕຸ": 15007,
  "▁ótimo": 4034,
  "DIY": 13466,
  "gle": 13215,
  "掂": 31118,
  "▁підприємство": 14624,
  "MOS": 46706,
  "лорду": 21954,
  "bs": 14408,
  "ple": 54103,
  "事項": 55383,
  "▁show": 51128,
  "▁went": 27620,
  "▁megtartott": 21175,
  "▁(50": 53252,
  "▁lietošanas": 8524,
  "▁마지막": 50760,
  "お楽しみ": 15001,
  "かなり": 39839,
  "▁ছিলেন": 4747,
  "▁기업": 34676,
  "▁spille": 16698,
  "▁قبضہ": 19922,
  "配合": 31944,
  "ウイルス": 25924,
  "する事": 56607,
  "amu": 23627,
  "▁Male": 37806,
  "▁đậu": 12377,
  "▁topatu": 2730,
  "▁pli": 41825,
  "▁sit": 15393,
  "▁kale": 41791,
  "▁variedad": 6476,
  "af": 28511,
  "現在": 52538,
  "▁රමාණයක්": 21400,
  "▁Crkve": 28170,
  "▁inwestor": 19075,
  "▁konkurranse": 766,
  "獎": 19868,
  "▁Lov": 39448,
  "▁Herr": 34808,
  "蟾": 31257,
  "▁camisa": 14831,
  "wari": 42913,
  "▁Кари": 12359,
  "▁jumatate": 10721,
  "肏": 31712,
  "ivas": 35795,
  "quam": 23047,
  "▁21": 56247,
  "torum": 52516,
  "▁habita": 45534,
  "菓": 27786,
  "ဆရာေတာ္": 12508,
  "这一点": 56161,
  "全新": 43118,
  "黃": 17402,
  "▁beli": 9049,
  "▁yüzey": 20420,
  "距離": 37004,
  "▁47": 51189,
  "ws": 21559,
  "두": 20803,
  "స్తున్నాయి": 9227,
  "60,000": 21718,
  "▁Eccles": 25907,
  "邺": 31859,
  "▁Musi": 48260,
  "▁გრი": 20947,
  "▁Home": 22154,
  "▁Toma": 52620,
  "틸": 17561,
  "▁είχα": 2275,
  "╹": 31341,
  "k": 55175,
  "海鮮": 18206,
  "糅": 31448,
  "▁ጅማ": 27928,
  "זכתה": 28119,
  "▁발견": 56380,
  "▁2012.": 6160,
  "만큼": 56671,
  "תוקף": 24129,
  "不然": 50588,
  "▁недель": 13013,
  "毬": 29516,
  "了一些": 53407,
  "baad": 1758,
  "▁Eerste": 17619,
  "ბორ": 11911,
  "-2018": 56663,
  "raju": 2842,
  "▁заявіў": 12942,
  "だけでなく": 44777,
  "μέτρη": 24997,
  "แทงบอล": 20555,
  "긋": 28904,
  "staviť": 9462,
  "reid": 51424,
  "▁먹": 42255,
  "Самыя": 28537,
  "▁निवास": 13470,
  "▁This": 36935,
  "▁amino": 50040,
  "有沒有": 4841,
  "▁прадстаўнікоў": 14709,
  "▁LT": 47648,
  "サービス": 23175,
  "等の": 51393,
  "▁MU": 3029,
  "trem": 44268,
  "hid": 12120,
  "qal": 45171,
  "桎": 31511,
  "棲": 25728,
  "▁fus": 45389,
  "▁Barat": 37850,
  "剃": 28875,
  "▁excelent": 11536,
  "咱们": 5624,
  "uel": 22304,
  "▁Βαρ": 19522,
  "奨": 20880,
  "epoca": 550,
  "▁защитава": 22523,
  "▁Pho": 48048,
  "▁Maka": 8061,
  "▁Օրինակ": 27066,
  "▁včera": 7066,
  "▁Saya": 51522,
  "გარი": 20073,
  "▁Elena": 46255,
  "▁סעיף": 7708,
  "යො": 1982,
  "▁közelebb": 23972,
  "▁ID": 3410,
  "▁되지": 56552,
  "rinish": 10511,
  "▁Fal": 25859,
  "应该": 1906,
  "Αυτό": 28628,
  "fryd": 5006,
  "▁Qanunun": 9671,
  "新作": 18798,
  "▁άμεση": 9194,
  "范围内": 53211,
  "๊ต": 23750,
  "bete": 42060,
  "科": 42874,
  "▁fibre": 5670,
  "माझ": 13871,
  "bū": 50561,
  "▁labor": 20100,
  "▁טיול": 8244,
  "▁premiér": 2578,
  "黎": 55310,
  "证": 25403,
  "▁Mike": 40121,
  "▁sera": 50892,
  "eros": 39479,
  "會有": 44467,
  "▁keindahan": 10646,
  "▁Sher": 44013,
  "昧": 16874,
  "foretak": 24222,
  "lene": 25683,
  "ाळ": 57077,
  "恐": 40676,
  "̇": 29179,
  "ISI": 36941,
  "ఎఫ్": 11782,
  "▁цивили": 22177,
  "评": 36678,
  "俺": 49250,
  "多样": 5991,
  "▁апасы": 25712,
  "▁Lah": 45899,
  "▁שקט": 22059,
  "依存": 24243,
  "agne": 48510,
  "tube": 49353,
  "▁великі": 6651,
  "јети": 8211,
  "▁фокус": 4171,
  "倫": 46471,
  "نوف": 23218,
  "مايدۇ": 7185,
  "ცხო": 608,
  "旅遊": 22915,
  "▁필요": 38842,
  "聞いたこと": 28227,
  "▁сайыс": 23069,
  "犬": 38491,
  "schlecht": 28138,
  "▁audi": 22890,
  "两国": 49632,
  "全年": 5153,
  "▁diari": 3649,
  "έντα": 19762,
  "▁Ä": 22174,
  "elta": 38981,
  "▁рулет": 23973,
  "▁LEO": 55623,
  "star": 44932,
  "▁con": 13451,
  "厥": 30292,
  "garri": 35448,
  "▁wie": 5664,
  "▁poderán": 7176,
  "▁zakaz": 9921,
  "stans": 49913,
  "载": 37160,
  "▁hrvatskom": 14458,
  "ato": 35167,
  "ገባው": 6389,
  "Ak": 39403,
  "walk": 56077,
  "fisk": 48502,
  "▁Move": 8802,
  "▁recovery": 11049,
  "bit": 36337,
  "udhu": 11469,
  "▁Hyper": 55513,
  "▁Triều": 15327,
  "▁прапор": 19093,
  "INS": 53736,
  "ạ": 7392,
  "pende": 34572,
  "▁month": 36258,
  "▁deb": 20913,
  "莱": 39620,
  "SL": 36019,
  "▁jud": 50413,
  "豬肉": 25742,
  "❀": 30198,
  "▁Kla": 24708,
  "噁": 29625,
  "▁potrošn": 12386,
  "乃": 52868,
  "▁사": 45993,
  "▁ה": 38209,
  "▁restant": 21277,
  "مبادرة": 8345,
  "✌": 27487,
  "▁lov": 11850,
  "▁create": 35151,
  "▁penal": 35055,
  "很有": 43518,
  "maharashtra": 27170,
  "järelevalve": 23026,
  "▁ability": 52545,
  "bie": 54951,
  "chukuliwa": 17410,
  "デビュー": 26860,
  "▁Liverpool": 39454,
  "▁செய்திகளை": 18296,
  "oase": 25923,
  "pin": 43387,
  "销": 35781,
  "的時間": 43304,
  "▁Trainer": 4852,
  "▧": 30717,
  "▁Pi": 36076,
  "Ich": 42320,
  "▁выйдет": 28487,
  "gondol": 6691,
  "osto": 40727,
  "▁crush": 8495,
  "Bel": 52207,
  "▁צעירים": 23716,
  "▁Zam": 39717,
  "▁kulturne": 8933,
  "▁finaliza": 2293,
  "▁τ": 11035,
  "▁hinzu": 9368,
  "▁détail": 12014,
  "▁better": 3883,
  "mmer": 49069,
  "mani": 55036,
  "▁20.00": 52273,
  "という言葉": 16989,
  "▁totalitar": 15554,
  "▁gospodarski": 13896,
  "▁blot": 41402,
  "打算": 47913,
  "áček": 6970,
  "▁Sevgili": 16702,
  "▁!!": 47751,
  "▁fem": 48790,
  "崇": 54119,
  "匆匆": 27094,
  "▁Tapi": 832,
  "▁Stein": 34967,
  "闔": 31087,
  "▁어": 10466,
  "daw": 45402,
  "▁Add": 35482,
  "203": 9726,
  "▁ഉട": 14315,
  "▁주변": 46720,
  "也没": 53898,
  "浹": 33342,
  "▁قابو": 17931,
  "侦": 12023,
  "▁Kuopio": 14296,
  "boga": 53033,
  "▁Partido": 50745,
  "▁پات": 7155,
  "▁alternative": 36097,
  "มหัศจรรย์": 27532,
  "▁1970": 20839,
  "▁ideas": 34094,
  "pire": 56468,
  "▁անձի": 2722,
  "▁subsidi": 45377,
  "쩝": 32500,
  "兄弟": 42932,
  "kake": 37294,
  "atis": 43296,
  "疑": 34873,
  "81": 8739,
  "其": 28583,
  "怅": 33489,
  "▁بزرگتر": 24114,
  "▁posting": 50782,
  "▁Vilnius": 44803,
  "збе": 3391,
  "▁vaalea": 22994,
  "Z": 12162,
  "▁મંત્રી": 25152,
  "▁biju": 5007,
  "主要是": 43262,
  "▁coro": 54605,
  "ange": 43451,
  "▁ಪತ್ರಿಕೆ": 10702,
  "お悩み": 25980,
  "젝": 29661,
  "当前": 38307,
  "mple": 37055,
  "▁Jennifer": 56542,
  "▁soyqırımı": 15915,
  "▁cost": 2674,
  "▁ஓட": 21310,
  "なければ": 44469,
  "相对": 41615,
  "▁22,": 30001,
  "毫无疑问": 27987,
  "東北": 8903,
  "▁tečaj": 1345,
  "ഭരണ": 21026,
  "鯧": 32304,
  "rö": 11714,
  "וכים": 2892,
  "▁어학사전": 27804,
  "anwalt": 23214,
  "▁megad": 18048,
  "▁Frankfurt": 38481,
  "く": 35534,
  "શાસ્ત્ર": 13693,
  "ประเพณี": 24018,
  "አንተ": 22412,
  "뎁": 32356,
  "▁megnéz": 13099,
  "▁아닌": 44568,
  "律": 49441,
  "MT": 38562,
  "▁Ururka": 26191,
  "સ્તર": 21498,
  "lied": 49679,
  "每个": 35304,
  "รึ": 17392,
  "▁차량": 3231,
  "▁jazz": 39429,
  "زوج": 6885,
  "▁വെച്ച": 7450,
  "😜": 29367,
  "ahi": 30110,
  "▁κοιμ": 21719,
  "နီး": 5000,
  "tunnus": 16619,
  "▁vakit": 3956,
  "วรรณ": 11533,
  "▁istedi": 409,
  "鮭": 29637,
  "дықтан": 23079,
  "▁devas": 38853,
  "能力": 43448,
  "üs": 34535,
  "▁recrea": 54635,
  "▁product": 7442,
  "朝": 55481,
  "inflammation": 22775,
  "▁Seminar": 40590,
  "▁2.1": 37542,
  "▁difusión": 9537,
  "籍": 42771,
  "verse": 38709,
  "robi": 40564,
  "vente": 46945,
  "無料": 37029,
  "angi": 47574,
  "ORD": 38335,
  "▁apropia": 8393,
  "▁Wam": 51091,
  "໗": 30589,
  "▁Why": 40985,
  "▁XP": 41289,
  "▁açıqlama": 4224,
  "톰": 29333,
  "的要求": 40316,
  "減少": 40445,
  "YON": 57067,
  "▁fran": 34772,
  "ෆි": 17648,
  "▁Boží": 21331,
  "恳": 33772,
  "▁LE": 17043,
  "ର୍ଡ": 5241,
  "껑": 33684,
  "▁nutri": 24936,
  "▁подготвен": 14467,
  "▁gwella": 16814,
  "繹": 27160,
  "mash": 56387,
  "pé": 4721,
  "▁Матеріал": 27427,
  "▁Прилеп": 14538,
  "rina": 16849,
  "应对": 52312,
  "▁wasn": 45850,
  "莫斯科": 18504,
  "▁Imran": 55174,
  "▁kubo": 7522,
  "ေတာ့ဘူး": 24192,
  "▁ince": 36248,
  "cido": 35439,
  "姻": 30245,
  "詳しく": 53463,
  "▁Keres": 4974,
  "▁hei": 35877,
  "▁الإعلان": 11969,
  "▁essential": 53703,
  "▁fórmula": 6819,
  "▁대회": 56208,
  "レベル": 52014,
  "bæk": 51508,
  "▁1951": 46122,
  "▁tissid": 19079,
  "幫": 37377,
  "全力": 49771,
  "▁Blackberry": 26492,
  "▁ищет": 27883,
  "▁Zajęci": 28225,
  "▁വാർത്ത": 14202,
  "▁opportunity": 44436,
  "▁content": 2440,
  "▁польскі": 21283,
  "▁sieť": 9032,
  "illo": 28489,
  "lir": 27143,
  "▁Kato": 52120,
  "万": 39190,
  "liche": 1872,
  "▁Thụy": 24838,
  "παρα": 725,
  "▁ડૉ": 7294,
  "▁cita": 13801,
  "馆": 28364,
  "▁geschaffen": 23551,
  "gori": 52244,
  "バレ": 14808,
  "▁necesarias": 8489,
  "▁2.3": 46137,
  "kového": 4965,
  "▁créé": 570,
  "tief": 37163,
  "ювали": 6368,
  "▁tunnettu": 22332,
  "▁hard": 51983,
  "▁HAL": 56011,
  "one": 38204,
  "発表": 43770,
  "▁Equip": 50255,
  "▁bout": 47292,
  "▁గతంలో": 14362,
  "ott": 38973,
  "▁Micro": 38841,
  "▁Kera": 2615,
  "▁Sama": 16435,
  "▁‘": 22621,
  "▁05": 42231,
  "mba": 48694,
  "ljivosti": 9176,
  "▁tarp": 33865,
  "▁ravi": 38169,
  "のか": 4564,
  "▁Grie": 48321,
  "hen": 36664,
  "▁Norden": 52544,
  "▁Taman": 43649,
  "▁mechan": 50661,
  "荐": 30459,
  "▁Apr": 40282,
  "ita": 55224,
  "▁as": 27898,
  "▁ٺاهي": 2154,
  "▁Professor": 40783,
  "▁볼": 30977,
  "เลยค่ะ": 4431,
  "qram": 5474,
  "rib": 2716,
  "atlan": 35915,
  "戶": 37633,
  "▁07:30": 25814,
  "つか": 55425,
  "▁3": 9066,
  "yes": 47331,
  "▁Em": 34925,
  "": 32154,
  "注重": 50228,
  "▁뒤": 36832,
  "▁Tho": 36685,
  "": 32521,
  "▁blind": 41267,
  "ನಾಥ್": 10335,
  "बन्दी": 14169,
  "▁ክፍ": 5720,
  "儒": 21035,
  "▁Asif": 13322,
  "▁қазақтың": 19306,
  "▁correct": 34524,
  "▁kumma": 3418,
  "て": 35872,
  "mall": 48963,
  "▁afhangend": 2941,
  "▁접": 50645,
  "stof": 38403,
  "▁wa": 34152,
  "赓": 32808,
  "four": 14103,
  "rdi": 3020,
  "五": 43417,
  "랜드": 47907,
  "âr": 35479,
  "規格": 55500,
  "bán": 54850,
  "▁부산": 47911,
  "▁Aslam": 19967,
  "▁Funk": 45660,
  "▁Ahmad": 26357,
  "▁Chí": 37304,
  "疏": 54798,
  "യാണെന്ന്": 10483,
  "▁Tell": 46031,
  "مدرسة": 4155,
  "▁accent": 51748,
  "•": 17725,
  "给了": 53790,
  "馄": 33423,
  "ndan": 49516,
  "Гэта": 27020,
  "并不是": 42182,
  "耄": 31898,
  "moni": 35093,
  "▁Taip": 31952,
  "▁Qurbanov": 21091,
  "World": 49401,
  "cip": 33951,
  "▁effective": 46278,
  "釆": 32262,
  "▁Soru": 3383,
  "mam": 20333,
  "▁negat": 55063,
  "▁kurulmuş": 18429,
  "课": 34126,
  "▁дзён": 1923,
  "▁Anderson": 53678,
  "▁Frauen": 36506,
  "ddin": 51075,
  "▁solicit": 50105,
  "massa": 2802,
  "▁oral": 35900,
  "▁Centro": 8448,
  "女王": 19170,
  "▁bağı": 12669,
  "▁Siz": 27343,
  "holder": 36565,
  "▁scri": 37454,
  "▁Maž": 6358,
  "▁mozos": 19355,
  "adam": 55377,
  "▁Tim": 8164,
  "▁Chro": 49256,
  "公园": 51455,
  "▁BR": 28248,
  "▁Protest": 50773,
  "▁يۈر": 9,
  "▁(21": 41153,
  "藤": 43645,
  "▁اخلاقی": 57094,
  "▁المناسب": 9050,
  "ðar": 1455,
  "▁rijden": 3987,
  "▁الكمبيوتر": 9763,
  "噼": 31727,
  "az": 18769,
  "νομο": 13721,
  "בלע": 7677,
  "▁Aztán": 8778,
  "荷": 38868,
  "炤": 31023,
  "dig": 42314,
  "▁스트레스": 25388,
  "▁Vital": 4168,
  "男人": 34849,
  "엌": 29903,
  "贡献": 38832,
  "瘫": 28992,
  "▁nou": 38104,
  "までの": 50358,
  "▁fara": 44523,
  "ያደርገ": 13643,
  "▁beállítás": 10609,
  "IDATO": 5285,
  "▁마": 55368,
  "▁взаимо": 464,
  "▁anvendelse": 11655,
  "霓": 30000,
  "▁المسؤول": 3470,
  "▁Area": 51926,
  "mes": 38514,
  "在": 24186,
  "軔": 32720,
  "alem": 50725,
  "▁відправ": 504,
  "poro": 49502,
  "能量": 43083,
  "▁Lucia": 8236,
  "▁бүхэн": 9308,
  "ပ်ိဳ": 24494,
  "зици": 2378,
  "▁menangkap": 16370,
  "▁novel": 24295,
  "lula": 53848,
  "▁Bon": 1389,
  "▁사고": 55734,
  "מיני": 14113,
  "ລາຍການ": 6749,
  "▁Axborot": 15474,
  "帰り": 6418,
  "դին": 11628,
  "▁통해": 7477,
  "20%": 43388,
  "▁hevalê": 16071,
  "蜀": 29485,
  "消費者": 39274,
  "▁oppkobling": 23418,
  "▁stanowiska": 21539,
  "▁Hợp": 12705,
  "었다": 27822,
  "CY": 50805,
  "34": 755,
  "▁labirint": 21709,
  "llus": 50154,
  "環保": 44103,
  "▁ڪپ": 2362,
  "eña": 47653,
  "ებების": 2043,
  "鞅": 32980,
  "ukas": 38536,
  "▁causa": 50082,
  "▁Fort": 21993,
  "▁activa": 37612,
  "čnik": 56559,
  "▁Vend": 43788,
  "▁putri": 11994,
  "dja": 37603,
  "ツ": 25730,
  "矛": 29962,
  "语": 4722,
  "वस्त्र": 18572,
  "itu": 50973,
  "▁Ig": 46030,
  "▁provinco": 19039,
  "▁ask": 34396,
  "fli": 38230,
  "▁ஊழியர்": 17564,
  "racht": 54212,
  "▁безопасность": 21429,
  "ucci": 41547,
  "건설": 53439,
  "Aus": 658,
  "ull": 40878,
  "part": 16925,
  "是你": 54193,
  "ಶೆ": 15475,
  "▁жигит": 1543,
  "▁guitarra": 17981,
  "game": 37833,
  "▁Texas": 36370,
  "也可": 52542,
  "口コミ": 6468,
  "▁ліцензії": 23703,
  "▁ფონდი": 13513,
  "▁Arbeids": 9217,
  "4%": 3237,
  "위원회": 43901,
  "砥": 29553,
  "▁мэдэж": 20096,
  "安排": 19434,
  "位於": 36580,
  "廳": 49121,
  "▁Cand": 44470,
  "ford": 8675,
  "▁(+": 25802,
  "▁Fredrik": 1009,
  "쌀": 19224,
  "سيطر": 649,
  "▁продуктів": 8630,
  "nous": 51971,
  "Az": 14382,
  "▁calor": 36101,
  "kabili": 14152,
  "万人": 44038,
  "獠": 32235,
  "瀑布": 24374,
  "▁Nagy": 26488,
  "▁кажем": 3341,
  "▁очікуван": 23657,
  "鲔": 32620,
  "▁घेता": 18860,
  "▁міндет": 7364,
  "利率": 38531,
  "ferm": 40171,
  "▁arkadaşlar": 5526,
  "타": 6054,
  "▁regio": 48183,
  "GT": 38573,
  "▁FIL": 10121,
  "▁wrinkles": 52668,
  "▁각": 34917,
  "务": 35988,
  "今は": 54060,
  "▁ιδι": 2271,
  "▁පරිසර": 23077,
  "ய்யா": 19178,
  "▁welcher": 2069,
  "කේ": 5663,
  "▁Թուրքիան": 23406,
  "linda": 45513,
  "▁newspaper": 50430,
  "ພຸດທະ": 28849,
  "▁razširi": 24784,
  "njwa": 14190,
  "打了": 9867,
  "▁místa": 1711,
  "EIN": 2406,
  "▁боловч": 10861,
  "7)": 38119,
  "▁Like": 19917,
  "बृ": 14163,
  "കരമായ": 9208,
  "▁Facebooku": 57266,
  "▁mensagens": 19305,
  "校友": 17826,
  "sllav": 22339,
  "母亲": 42957,
  "▁determine": 53106,
  "▁Bibl": 18880,
  "▁Pievienot": 5881,
  "蒿": 31270,
  "듭": 33807,
  "▁hake": 47628,
  "延伸": 2487,
  "tat": 39332,
  "ちゃ": 44817,
  "는": 51265,
  "الحيوان": 25156,
  "▁संपूर्ण": 6822,
  "亞": 21606,
  "Ein": 46540,
  "▁Hol": 10526,
  "ança": 36870,
  "鯱": 32975,
  "笹": 31045,
  "的作品": 46979,
  "▁gluten": 48961,
  "一条": 37267,
  "kap": 7253,
  "▁need": 39095,
  "solid": 56808,
  "纍": 33405,
  "▁1941": 31318,
  "XT": 49522,
  "씻": 33744,
  "芹": 29272,
  "ကြၽန္": 24381,
  "▁Ευρωπαϊκής": 21149,
  "▁mash": 46561,
  "dry": 42613,
  "stamine": 54978,
  "▁sakrament": 23564,
  "▁Mas": 35851,
  "▁psycho": 49213,
  "헹": 31534,
  "▁phi": 41017,
  "▁gave": 34242,
  "atum": 51395,
  "▁сотрудники": 17281,
  "下面": 34131,
  "医药": 2617,
  "▁480": 47385,
  "重庆时时彩": 15155,
  "전": 38738,
  "移": 22725,
  "領導": 50944,
  "iral": 53925,
  "搜索": 47241,
  "熠": 29703,
  "▁რომელიმე": 20190,
  "viya": 8205,
  "▁34.": 53846,
  "▁okamžit": 8401,
  "▁немец": 7136,
  "group": 43495,
  "DV": 42581,
  "▁naye": 54,
  "▁postupne": 11136,
  "▁500": 23841,
  "▁Rosen": 53132,
  "▁village": 44375,
  "ไซต์": 23319,
  "▁Ś": 39935,
  "ình": 4933,
  "ดิจิตอล": 21668,
  "▁YA": 37046,
  "中华人民共和国": 54008,
  "PH": 44325,
  "▁Previous": 47487,
  "dict": 46726,
  "plant": 42503,
  "rate": 18119,
  "‐": 26726,
  "日益": 50350,
  "કિંગ": 22511,
  "▁cais": 54909,
  "ιχν": 10625,
  "薈": 29873,
  "▁municipal": 11567,
  "▁அவர்களுக்கு": 9024,
  "LAV": 1695,
  "▁Internetseite": 11759,
  "▁pelle": 40903,
  "▁puc": 44532,
  "最好的": 36868,
  "ain": 25252,
  "▁ಸಾರಿಗೆ": 26429,
  "ervaring": 21294,
  "▁Boden": 52558,
  "氳": 33140,
  "▁пристигна": 14141,
  "全て": 51756,
  "すごく": 56929,
  "▁dura": 23867,
  "▁apliecinā": 24966,
  "▁השירות": 1209,
  "లొ": 12437,
  "IDA": 34666,
  "ühend": 24409,
  "▁도": 5927,
  "▁bintang": 57361,
  "plast": 49939,
  "▁პროგრამების": 23231,
  "钓": 29856,
  "▁skal": 3401,
  "マッサージ": 20778,
  "▁бодож": 5628,
  "▁Atlant": 52760,
  "jelölt": 6264,
  "計画": 52682,
  "▁Jana": 35969,
  "▁몰": 46108,
  "重新": 24645,
  "ډي": 5401,
  "Esquerra": 28132,
  "だ": 48592,
  "出发": 55451,
  "냐": 46286,
  "盐": 12564,
  "▁pain": 30270,
  "▁вантаж": 16690,
  "讃": 31226,
  "ser": 25312,
  "▁melyet": 2934,
  "▁пропуска": 16841,
  "貶": 29123,
  "大数据": 55797,
  "trou": 56676,
  "bord": 19204,
  "▁teach": 56211,
  "▁matur": 35116,
  "▁Фре": 2178,
  "▁Tee": 43321,
  "轉": 55665,
  "▁கிராம": 5907,
  "▁similares": 7794,
  "▁pueblo": 44923,
  "▁získať": 8350,
  "▁disposa": 52913,
  "limit": 55816,
  "▁looked": 44518,
  "▁My": 34392,
  "▁जॉन": 23624,
  "▁шаруа": 26495,
  "▁кніг": 19316,
  "jóð": 53865,
  "▁අකුර": 28540,
  "vut": 44161,
  "輝": 52570,
  "▁Luk": 42854,
  "▁نهايت": 20570,
  "彎": 17914,
  "正确": 53210,
  "ბერძნ": 11357,
  "▁profund": 45683,
  "▁Community": 48043,
  "▁bliadhna": 7704,
  "▁becsül": 25934,
  "▁DHL": 19595,
  "の場合": 46728,
  "ize": 23248,
  "自分": 31559,
  "麓": 29630,
  "▁Temp": 38628,
  "▁στόμα": 22736,
  "betreuung": 27695,
  "EST": 25228,
  "妝": 53148,
  "▁usato": 11273,
  "buz": 51163,
  "数": 42066,
  "ాయ్": 8735,
  "mäki": 54349,
  "▁Azért": 17523,
  "勢": 22377,
  "罚款": 17599,
  "翡": 28861,
  "朵": 56487,
  "▁Trip": 44859,
  "▁ભોગ": 26296,
  "▁Ik": 36803,
  "miehen": 11450,
  "▁phone": 28541,
  "▁ګډ": 3371,
  "▁Monroe": 24910,
  "שמים": 5530,
  "▁Juha": 55057,
  "沃": 47786,
  "▁Susan": 48418,
  "▁ஒலி": 19567,
  "所得税": 24505,
  "媳妇": 28321,
  "紀錄": 48320,
  "̱": 29901,
  "▁predsa": 6136,
  "终止": 23605,
  "iva": 39483,
  "祓": 30971,
  "aanbieder": 24327,
  "ర్చి": 23570,
  "▁चासो": 23185,
  "▁pokol": 6865,
  "▁(": 9744,
  "▁новыя": 6552,
  "▁armastus": 16624,
  "▁카": 37589,
  "Sullivan": 26278,
  "▁Quint": 50073,
  "繽紛": 26240,
  "▁flaske": 13444,
  "dy": 11019,
  "▁brush": 19683,
  "ေႀကာင္": 26170,
  "taki": 41185,
  "▁Eigenschaften": 24609,
  "▁shah": 55034,
  "▁společn": 22283,
  "fjöl": 16584,
  "gänge": 57136,
  "▁താന്": 5586,
  "▁sport": 35409,
  "ranga": 44145,
  "▁kra": 1694,
  "▁페": 53006,
  "▁mindez": 12442,
  "함": 28339,
  "┒": 32332,
  "った": 46860,
  "▁akció": 387,
  "▁agertzen": 11234,
  "▁1⁄2": 51777,
  "▁குண": 14201,
  "▁Q": 28365,
  "▁ווערט": 5091,
  "Տեղեկ": 22625,
  "動畫": 55640,
  "▁أمراض": 25066,
  "2,0": 25026,
  "▁xavf": 16140,
  "▁minimo": 1217,
  "▁Chap": 53780,
  "▁Mpifankatia": 28288,
  "解決": 26346,
  "gård": 37220,
  "洲": 46549,
  "✠": 33304,
  "眩": 29133,
  "tono": 54183,
  "▁Nis": 34946,
  "▁участници": 23593,
  "打破": 1687,
  "▁animal": 34315,
  "▁արդյունքները": 20441,
  "▁2013": 5287,
  "硬": 24419,
  "administra": 870,
  "萧": 16794,
  "ール": 40145,
  "合格": 43129,
  "▁받은": 51413,
  "出门": 14270,
  "马来西亚": 9428,
  "ោក": 15340,
  "▁herself": 14962,
  "发展": 37142,
  "</s_num>": 57565,
  "ngar": 40022,
  "▁Gora": 53765,
  "▁ನಡೆಸಿ": 21073,
  "▁Evropi": 5477,
  "剩": 47727,
  "▁검찰": 21674,
  "建築": 36356,
  "▁SUR": 2866,
  "debat": 52999,
  "▁његово": 8011,
  "满足": 35531,
  "▁gestionar": 10175,
  "UND": 37482,
  "先進": 55169,
  "▁вышел": 13722,
  "팀": 40116,
  "▁krant": 10982,
  "tämisen": 20939,
  "Γ": 13523,
  "▁Saint": 5531,
  "tera": 53704,
  "합": 35810,
  "εση": 17387,
  "▁mashkull": 27356,
  "ทั้งสิ้น": 19618,
  "記事": 42744,
  "▁(2014)": 50403,
  "▁Verteidigung": 27860,
  "▁Британи": 17962,
  "▁ይታ": 14687,
  "פנים": 9037,
  "▁মহ": 16034,
  "▁Arti": 38995,
  "▁потребе": 4122,
  "▁Ego": 48469,
  "melt": 51226,
  "钗": 31643,
  "mille": 50670,
  "魔": 28520,
  "▁értelmez": 16831,
  "ila": 29243,
  "컫": 33540,
  "▁minutu": 12449,
  "般": 43808,
  "▁Valencia": 50159,
  "vez": 56806,
  "看起来": 54393,
  "甚": 54406,
  "溫": 27951,
  "▁요리": 56266,
  "之所以": 56441,
  "өөд": 1259,
  "Hz": 55838,
  "▁çerçeve": 25523,
  "一同": 47221,
  "▁Cristiano": 56507,
  "▁Yol": 43162,
  "▁Kron": 47206,
  "ෙමි": 4476,
  "▁вираз": 18635,
  "もの": 2149,
  "▁habitual": 40742,
  "▁build": 41426,
  "皆さん": 50710,
  "▁Botanic": 26445,
  "되": 40125,
  "gh": 56178,
  "▁medicament": 3144,
  "▁omen": 42086,
  "kep": 48588,
  "dista": 49294,
  "KOV": 5024,
  "▁22-": 37385,
  "έζ": 57377,
  "isko": 15648,
  "▁4.1": 46653,
  "numero": 53801,
  "▁construct": 47576,
  "▁umysł": 19950,
  "▁rhag": 11543,
  "▁skutecznie": 13874,
  "ute": 48463,
  "一緒に": 44432,
  "▁beta": 43537,
  "教师": 33091,
  "텐": 55044,
  "▁Svet": 39740,
  "웡": 32364,
  "▁suunnitella": 28218,
  "միջոց": 2698,
  "傳統": 37195,
  "▁TB": 55907,
  "에는": 52305,
  "▁Komment": 5759,
  "信義": 18682,
  "ひと": 10533,
  "呆": 48315,
  "endam": 55572,
  "▁мій": 17744,
  "್ತಿ": 5165,
  "▁photos": 23709,
  "02": 56344,
  "tuuri": 8384,
  "不断": 5345,
  "ۚ": 29041,
  "წამ": 6227,
  "OLOGIA": 25291,
  "tiivne": 5878,
  "runk": 51898,
  "▁Cerca": 6715,
  "▁our": 29832,
  "峋": 33150,
  "않": 30170,
  "▁atlikti": 696,
  "▁prijaviti": 18199,
  "▁disp": 45725,
  "▁Topp": 47640,
  "〝": 28864,
  "▁interessere": 1672,
  "▁235": 1114,
  "滋": 48421,
  "tiunea": 5360,
  "▁Bölüm": 6514,
  "পাত": 12288,
  "toxic": 50636,
  "那里": 53574,
  "荳": 31524,
  "▁zachwyc": 16066,
  "▁Page": 10252,
  "ember": 34805,
  "حسین": 15266,
  "の前で": 23048,
  "rás": 34443,
  "的人生": 5106,
  "▁Voj": 53470,
  "倶": 30773,
  "▁ps": 28445,
  "▁ương": 57173,
  "▁തെക്ക": 27841,
  "Mar": 14734,
  "▁electr": 20621,
  "▁matbuot": 19300,
  "랬": 23609,
  "▁Zer": 36631,
  "</s_discount_price>": 57557,
  "▁Όλε": 22070,
  "äkin": 3377,
  "知情": 19022,
  "▁Ski": 22948,
  "累计": 5948,
  "lte": 34959,
  "น้ําท่วม": 27057,
  "▁단": 9079,
  "брид": 15592,
  "anana": 50952,
  "夫妻": 47138,
  "年以上": 54059,
  "▁الرياضية": 12186,
  "我要": 44304,
  "vant": 36068,
  "▁చిత్రాన్ని": 16525,
  "▁matukoy": 28525,
  "▁փրկ": 19978,
  "▁Saf": 43940,
  "▁Презентац": 20056,
  "▁خاتم": 4667,
  "prox": 47451,
  "鰻": 29990,
  "移动": 38714,
  "äll": 42639,
  "▁Kardeş": 27406,
  "rin": 34513,
  "▁зөвлөл": 6744,
  "▁part": 35162,
  "else": 44753,
  "pod": 783,
  "限定": 44931,
  "▁ΜΑΣ": 10463,
  "Gri": 12049,
  "騏": 31852,
  "▁medicale": 4981,
  "pone": 53756,
  "▁मिलती": 19311,
  "blik": 41360,
  "価": 52536,
  "▁prohibi": 47205,
  "▁Grønland": 18605,
  "lgan": 52710,
  "辛": 39296,
  "▁баян": 57010,
  "zel": 43232,
  "▁μιλά": 4031,
  "명": 44808,
  "АЛЬ": 2438,
  "▁wrong": 41184,
  "kil": 8833,
  "ෙදි": 22052,
  "▁fully": 54788,
  "▁argent": 52945,
  "mare": 41401,
  "▁2006,": 48005,
  "继续": 12882,
  "▁fund": 56104,
  "▁glavne": 8796,
  "風景": 52417,
  "huaigh": 18196,
  "▁interven": 27931,
  "задължително": 26374,
  "ET": 27587,
  "bour": 39071,
  "▁explo": 31350,
  "▁Team": 3561,
  "在这": 42479,
  "▁مفيد": 12145,
  "的原因": 39283,
  "動画": 40915,
  "媳": 29003,
  "▁2011.": 9739,
  "▁običaj": 10434,
  "lent": 25574,
  "▁lõuna": 16375,
  "▁Pembangunan": 6881,
  "쥘": 32053,
  "빚": 28936,
  "iai": 54410,
  "▁cărui": 12185,
  "▁이해": 41817,
  "▁3)": 53373,
  "醫師": 47075,
  "▁بکش": 18824,
  "▁pontosan": 5150,
  "▁Integra": 55450,
  "▁NASA": 39567,
  "ntis": 20590,
  "wis": 14520,
  "便宜": 38146,
  "嘯": 29119,
  "દ્દ": 17397,
  "лён": 3560,
  "オ": 11007,
  "βγάλ": 26928,
  "▁esperanza": 4082,
  "▁ሸ": 5931,
  "1,00": 16912,
  "▁태그": 43679,
  "ear": 35267,
  "▁&": 46762,
  "▁historiske": 13671,
  "បំផ្លាញ": 27635,
  "▁Telekom": 53101,
  "pera": 39915,
  "芸": 57288,
  "▁kurus": 1573,
  "帳": 49101,
  "▁Cho": 42864,
  "자가": 37071,
  "群体": 53660,
  "och": 38017,
  "387": 3388,
  "lak": 41207,
  "cti": 28219,
  "▁酒店位於": 28721,
  "finn": 47938,
  "눴": 33575,
  "വാസി": 24488,
  "ылжымайтын": 17924,
  "▁מרכזית": 20814,
  "▁expect": 39994,
  "▁소리": 55547,
  "▁حلف": 8892,
  "ketten": 6259,
  "няв": 8872,
  "一笑": 18466,
  "▁Abd": 47260,
  "▁ബന്ധപ്പെട്ട": 5815,
  "▁Tôn": 13841,
  "פלא": 3945,
  "▁MAC": 51830,
  "レ": 3505,
  "▁Ober": 36834,
  "▁장소": 52382,
  "資金": 41749,
  "暇": 2247,
  "tany": 40620,
  "隊": 8922,
  "▁1867": 16508,
  "folk": 37295,
  "汶": 28319,
  "數據": 40260,
  "▁+1": 45256,
  "▁válido": 20687,
  "▁premier": 57196,
  "阐": 29054,
  "OMA": 48398,
  "▁itself": 48644,
  "▁Cir": 3760,
  "▁sepatu": 11021,
  "3.3": 8517,
  "▁ਵੇ": 7580,
  "ዓት": 14473,
  "▁joilla": 3777,
  "▁있다는": 44134,
  "辺": 3575,
  "▁персональн": 10939,
  "ví": 36712,
  "▁rengi": 4724,
  "App": 39287,
  "foar": 12384,
  "ꡒ": 32966,
  "▁경우": 2602,
  "chana": 47465,
  "呕": 29278,
  "▁soveværelse": 25058,
  "▁labore": 34854,
  "▁pulsa": 55876,
  "ლებში": 17802,
  "θρησκ": 14040,
  "vus": 5509,
  "▁mental": 9493,
  "工人": 50846,
  "▁خالق": 22672,
  "▁ئۇلار": 57362,
  "人都": 45509,
  "▁Tú": 45533,
  "gene": 12571,
  "61": 3931,
  "mere": 34877,
  "ög": 34010,
  "마": 45452,
  "▁Út": 48812,
  "▁Poz": 26872,
  "ink": 9882,
  "▁feel": 5844,
  "▁creada": 13162,
  "▁21,": 24535,
  "▁Rahman": 43804,
  "ജ്ഞാന": 16327,
  "诟": 33530,
  "▁Tij": 54531,
  "幗": 32271,
  "更多": 52489,
  "75)": 55920,
  "oldeb": 13353,
  "▁느": 51801,
  "▁null": 45061,
  "侧": 49778,
  "▁Tiger": 52661,
  "鲟": 31938,
  "cd": 49692,
  "▁krigen": 10691,
  "မက်": 19219,
  "dita": 44026,
  "┝": 32030,
  "alai": 43068,
  "▁Teng": 49885,
  "▁ánimo": 11309,
  "uku": 1333,
  "▁Қазіргі": 732,
  "▁Систем": 7550,
  "rs": 40596,
  "誨": 31186,
  "サイズ": 47765,
  "▁drill": 21977,
  "▁Partiya": 1016,
  "crit": 46154,
  "▁Labem": 15857,
  "▁skupini": 12165,
  "就算": 43033,
  "just": 22632,
  "▁ngừa": 12781,
  "อนุบาล": 25668,
  "▁Magistr": 3537,
  "▁occidental": 49616,
  "យោធា": 23940,
  "▁법": 38704,
  "▁بله": 57312,
  "ప్రదేశ్": 13900,
  "Information": 23007,
  "▁lira": 42439,
  "සර්": 18885,
  "dán": 53770,
  "ኢየሱስ": 18109,
  "갠": 31878,
  "▁compliment": 50976,
  "▁loved": 51681,
  "▁previsione": 26288,
  "▁dyna": 48848,
  "▁totally": 3240,
  "趋": 10637,
  "سيل": 1187,
  "▁Специалист": 22391,
  "▁1080": 39480,
  "▁রোড": 6950,
  "▁formula": 34279,
  "▁inserito": 24548,
  "▁scríobh": 9869,
  "ចរចា": 27749,
  "歹": 29211,
  "zela": 39120,
  "▁चन्द्र": 323,
  "sions": 47179,
  "ၣ": 33667,
  "▁сесії": 18467,
  "VP": 39984,
  "▁twee": 52391,
  "室内": 1511,
  "▁줄": 35734,
  "▁Rin": 39435,
  "▁Twin": 55467,
  "部长": 51993,
  "砵": 33135,
  "▁sadržaja": 57224,
  "▁اخراج": 5347,
  "▁negre": 5933,
  "▁dun": 50790,
  "信": 43212,
  "▁പ്രശ്നം": 20912,
  "紧紧": 13331,
  "▁melodi": 40825,
  "▁ascend": 52967,
  "ty": 55917,
  "▁подряд": 19168,
  "▁Jos": 55636,
  "的名字": 51891,
  "▁düzenlen": 5886,
  "诛": 31110,
  "秸": 31144,
  "tul": 38697,
  "▁tes": 36497,
  "istin": 865,
  "▁growing": 1557,
  "漠": 13038,
  "▁line": 8152,
  "▁Viet": 46120,
  "▁rare": 39995,
  "因为它": 20123,
  "▁επιχειρ": 4728,
  "▁fantástico": 16129,
  "curs": 42546,
  "▁разчита": 20348,
  "▁terapija": 18367,
  "▁tome": 25031,
  "瘀": 30642,
  "판": 21416,
  "▁Infrastruktur": 10327,
  "▁göstərən": 730,
  "資源": 35771,
  "▁Stol": 50235,
  "▁Szociális": 27954,
  "▁sabo": 54597,
  "▁Nah": 28529,
  "▁మొదలు": 14875,
  "কন": 5313,
  "▁ann": 37339,
  "ефективни": 9783,
  "烈": 42345,
  "▁Ramón": 56137,
  "体制": 44241,
  "物件": 48250,
  ":46": 36929,
  "ຂະຫນາດ": 13551,
  "▁писать": 5389,
  "▁h": 2460,
  "လောင်း": 21963,
  "▁तौर": 8890,
  "▁zdrowy": 21267,
  "기": 11982,
  "boerderij": 24169,
  "로서": 48488,
  "▁comes": 36781,
  "folia": 10695,
  "ranta": 39457,
  "▁Perak": 49607,
  "حذر": 2681,
  "▁tədbirləri": 13109,
  "▁suggest": 40415,
  "▁någonting": 15446,
  "▁kūrė": 21626,
  "ović": 15387,
  "▁ಅಪ್": 14198,
  "▁HTML": 20385,
  "▁Premium": 40277,
  "▁reproduc": 40344,
  "マーケティング": 25727,
  "▁Bisnis": 57059,
  "sses": 40793,
  "▁geralmente": 17788,
  "▁Boz": 55570,
  "▁doubt": 55689,
  "▁Hukuk": 15501,
  "น้ําตาล": 11337,
  "▁Ví": 24662,
  "▁Kil": 39143,
  "ilis": 42013,
  "應用": 35898,
  "▁รอบ": 2316,
  "创新": 819,
  "▁Sepak": 13838,
  "ମଣି": 25900,
  "▁معها": 5108,
  "▁नतीज": 26606,
  "▁tools": 50148,
  "▁throughout": 54208,
  "▁Ronald": 54934,
  "▁problems": 41079,
  "▁posted": 41022,
  "▁commune": 41492,
  "▁365": 34921,
  "丰富的": 53359,
  "積極": 42420,
  "tare": 51301,
  "▁Indi": 26145,
  "AIN": 42317,
  "▁ನುಡಿ": 13176,
  "▁ajutor": 416,
  "▁비": 49495,
  "UNA": 43638,
  "EPA": 50012,
  "띄": 33780,
  "ça": 35677,
  "flow": 4710,
  "▁Uz": 139,
  "▁durchaus": 3012,
  "BC": 28832,
  "222": 8013,
  "▁alla": 57114,
  "▁haf": 50587,
  "▁쿠키": 25530,
  "▁Ła": 1478,
  "榨": 28932,
  "▁하루": 43350,
  "tryk": 40248,
  "pha": 11086,
  "▁symptom": 7145,
  "▁française": 49946,
  "▁Delhi": 44853,
  "▁chant": 5109,
  "▁Eb": 42177,
  "▁prekin": 8886,
  "liğinde": 7507,
  "▁haberleri": 12815,
  "▁though": 24198,
  "└": 30005,
  "▁Више": 5319,
  "▁ஆறு": 13570,
  "ジュ": 52641,
  "领袖": 22753,
  "▁Rado": 52076,
  "vl": 43031,
  "▁gr": 41119,
  "▁soda": 48556,
  "िङ्ग": 20917,
  "매": 15376,
  "▁საბჭო": 23000,
  "แผนที่": 12521,
  "潜艇": 27624,
  "igas": 34536,
  "▁Anno": 42357,
  "▁Voll": 55770,
  "ওয়ে": 6496,
  "▁Språk": 22157,
  "漫画": 49881,
  "復": 26823,
  "termin": 36023,
  "▁흐름": 22930,
  "▁Ás": 53000,
  "钩": 29158,
  "▁undrar": 13788,
  "▁Linh": 44608,
  "2020": 42792,
  "▁celów": 18164,
  "▁अंध": 13701,
  "▁rose": 42725,
  "▁naktį": 22956,
  "verti": 40060,
  "▁ibadah": 2057,
  "▁4:": 35015,
  "уватимуть": 25364,
  "▁Louis": 38608,
  "▁Alu": 44221,
  "凭": 996,
  "lov": 49770,
  "작": 17003,
  "▁මරු": 17835,
  "drom": 40157,
  "▁državno": 1875,
  "▁Album": 38582,
  "▁Vill": 30965,
  "▁del": 10862,
  "▁shkollë": 1100,
  "這是": 25289,
  "▁있을": 35674,
  "▁mell": 47883,
  "▁capta": 53403,
  "▁tape": 47009,
  "▁provoca": 35583,
  "週": 12356,
  "håndtering": 14980,
  "▁1967": 35423,
  "wagen": 41755,
  "330": 56058,
  "禍": 19374,
  "螢": 27720,
  "官网": 43807,
  "蚋": 32581,
  "entre": 25665,
  "▁restaurantes": 57482,
  "▁කොටසක්": 22600,
  "莺": 31362,
  "唱歌": 17372,
  "了解到": 55178,
  "▁تونس": 1127,
  "▁Bier": 437,
  "▁effects": 55839,
  "▁Consulte": 57127,
  "▁chili": 56661,
  "▁220": 27523,
  "嶄": 28884,
  "▁Malatya": 18021,
  "altı": 881,
  "▁රසික": 26156,
  "બ્રા": 16656,
  "することを": 3587,
  "дает": 1704,
  "</s_discountprice>": 57567,
  "機構": 38597,
  "ಯಲ್ಲಿರುವ": 18559,
  "▁UV": 36511,
  "▁Mujh": 3762,
  "ş": 17327,
  "reis": 40586,
  "▁voltooi": 22015,
  "▁reserve": 51283,
  "⇙": 31589,
  "となり": 2553,
  "▁Bing": 50379,
  "귀": 49708,
  "▁今": 44484,
  "▁პროექტი": 5704,
  "かかって": 10017,
  "요": 43444,
  "耆": 30748,
  "▁driver": 35011,
  "يمان": 11287,
  "▁programmer": 51550,
  "▁ratione": 45097,
  "▁ಹಾಗ": 7492,
  "lor": 11563,
  "▁লীগ": 9201,
  "▁kiegészít": 23283,
  "つけ": 39402,
  "▁때문에": 23856,
  "まいります": 28115,
  "▁ανάρτησης": 17683,
  "▁40-": 44191,
  "олози": 17251,
  "mat": 25910,
  "หัด": 25927,
  "žimo": 11673,
  "杈": 33083,
  "▁Catholic": 7346,
  "不知": 40288,
  "▁rain": 559,
  "▁berjocht": 11195,
  "▁ridic": 54403,
  "avslutning": 22489,
  "▁ଡାକ": 19321,
  "띵": 31870,
  "▁lap": 35997,
  "ług": 38390,
  "Mus": 44782,
  "▁ಹಿಂ": 57101,
  "▁بوی": 3708,
  "战争": 45713,
  "▁øje": 529,
  "▁Schwangerschaft": 23688,
  "▁Lí": 34742,
  "▁없다": 36530,
  "Хэрвээ": 19380,
  "▁Castell": 36994,
  "▁obli": 36246,
  "stare": 51669,
  "釩": 32283,
  "▁izendatu": 27464,
  "取り組む": 28462,
  "റ്റിൽ": 23155,
  "gau": 50742,
  "▁kuusi": 16561,
  "ьян": 891,
  "▁star": 46375,
  "するか": 6510,
  "ერების": 15768,
  "슈": 42140,
  "५६": 9199,
  "▁Зашто": 6083,
  "stúpiť": 24731,
  "塑膠": 18143,
  "▁ἐ": 11578,
  "镌": 32085,
  "▁strat": 42442,
  "▁추천": 39796,
  "顺": 37015,
  "▁Xã": 8241,
  "▁cair": 51860,
  "喱": 29355,
  ":50": 28221,
  "िस्ट": 1756,
  "ทดลอง": 7529,
  "▁негізінде": 2244,
  "▁kemas": 57505,
  "生徒": 2029,
  "▁Palembang": 26566,
  "▁people": 37327,
  "胖": 53251,
  "▁DHA": 7903,
  "痿": 33690,
  "suf": 51523,
  "光": 35135,
  "▁keyboard": 11752,
  "▁modifi": 50211,
  "indica": 49062,
  "aspect": 22519,
  "son": 15812,
  "ազգ": 9686,
  "ikal": 37668,
  "676": 18450,
  "룩": 8611,
  "терорист": 13024,
  "▁лекарство": 22991,
  "rādi": 10422,
  "▁만난": 17995,
  "inan": 34869,
  "▁conforme": 40850,
  "šené": 10783,
  "席": 34097,
  "▁client": 27455,
  "摁": 31755,
  "ความร่วมมือ": 17325,
  "ાક": 14556,
  "▁dre": 17682,
  "▁агуу": 9357,
  "۔۔۔۔۔": 17716,
  "óg": 36406,
  "▁Ogos": 9540,
  "▁Mund": 46798,
  "▁Gut": 38610,
  "▁تمدن": 15056,
  "ommage": 20228,
  "▁piccolo": 45603,
  "mik": 15678,
  "孫": 52008,
  "▁tattoo": 51952,
  "▁età": 4663,
  "▁Pau": 40322,
  "▁viihty": 19340,
  "▁BT": 48070,
  "▒": 27216,
  "렌": 38229,
  "ched": 50621,
  "コントロール": 21362,
  "▁comfort": 42154,
  "▁pel": 40271,
  "SIL": 48870,
  "▁rep": 2476,
  "▁ցանկանում": 1956,
  "▁Veg": 56040,
  "沓": 30818,
  "": 29644,
  "齋": 29284,
  "▁(\"": 28523,
  "▁díszít": 23786,
  "肪": 32881,
  ")(": 43440,
  "鲤": 30822,
  "寞": 33800,
  "어르신": 28821,
  "▁Spa": 2478,
  "stede": 48826,
  "▁11-": 21317,
  "ismo": 36268,
  "لىنىدۇ": 10472,
  "▁ωραία": 24390,
  "瑕": 29245,
  "蒙": 35695,
  "mek": 41568,
  "▁vprašanja": 1647,
  "▁Michal": 52053,
  "koop": 49057,
  "▁սոցիալ": 28712,
  "▁corri": 36726,
  "▁Hep": 56244,
  "人数": 42687,
  "informa": 52520,
  "දෙනා": 19441,
  "蔘": 30923,
  "況": 50334,
  "▁Voor": 52889,
  "RTI": 15363,
  "▁camping": 41180,
  "▁सीएम": 2561,
  "uring": 43969,
  "▁Bas": 6291,
  "nd": 25619,
  "▁kedvezmény": 9868,
  "を確認": 50646,
  "▁slav": 35716,
  "▁herba": 53535,
  "usias": 54044,
  "▁برجام": 2112,
  "Мир": 23381,
  "懲": 25306,
  "lbstverständlich": 57011,
  "一向": 15614,
  "ruit": 50167,
  "braut": 4239,
  "측": 42701,
  "资产": 36718,
  "kita": 17721,
  "▁define": 46795,
  "▁आँखा": 10201,
  "▁немски": 24479,
  "cii": 34415,
  "108": 48980,
  "どの": 51477,
  "▁arm": 14710,
  "นวด": 3329,
  "▁nemendur": 8233,
  "澀": 27682,
  "▁հանցագործ": 16833,
  "stan": 40888,
  "řez": 57494,
  "可以在": 44275,
  "桠": 33015,
  "Met": 51754,
  "▁ಬಡ": 5751,
  "▁sizlerle": 22109,
  "నెట్": 2755,
  "▁stan": 5066,
  "▁windows": 44522,
  "編輯": 56255,
  "-02": 54437,
  "▁wensen": 57350,
  "▁puissant": 17942,
  "▁Herbert": 17717,
  "宣佈": 25110,
  "▁almacenamiento": 28174,
  "បញ្ជី": 7603,
  "估計": 22450,
  "UNTA": 13023,
  "▁oğlan": 15031,
  "nali": 35763,
  "គាត់": 6328,
  "鄙": 29131,
  "姗": 30052,
  "▁καλοκαίρι": 8279,
  "nja": 15103,
  "▁lagring": 23976,
  "酒": 57386,
  "▁merhaba": 23195,
  "ahu": 43643,
  "▁Rechte": 2757,
  "▁Barra": 55704,
  "▁Ako": 45337,
  "▁elszámol": 25945,
  "洶": 33639,
  "▁Sach": 45774,
  "を持って": 41621,
  "न्थ": 14839,
  "死了": 316,
  "midi": 47080,
  "▁Gre": 669,
  "電壓": 22286,
  "si": 16388,
  "▁Frühjahr": 28164,
  "▁uurimis": 18667,
  "▁ഏത്": 16476,
  "げ": 39290,
  "tes": 14837,
  "ထုတ္ျပန္": 22942,
  "▁indenfor": 57243,
  "illas": 41149,
  "这也是": 55741,
  "▁lands": 37174,
  "ράσεις": 22904,
  "▁occ": 56408,
  "并": 34493,
  "lege": 36889,
  "▁Música": 47353,
  "▁[1": 48705,
  "▁Tokyo": 49725,
  "そ": 41888,
  "อินเตอร์เน็ต": 24836,
  "▁Abs": 34695,
  "平稳": 21950,
  "컥": 31054,
  "▁kit": 29807,
  "life": 32342,
  "綻": 28034,
  "ntotdeauna": 12566,
  "攻击": 52997,
  "领域": 16207,
  "▁obračun": 7878,
  "mond": 13831,
  "PD": 37506,
  "▁Pályázat": 28769,
  "▁özünə": 13979,
  "ვნის": 6182,
  "投资": 53593,
  "▁Agung": 105,
  "▁like": 19877,
  "▁ಹರಿ": 57237,
  "laşmış": 14205,
  "֣": 29414,
  "鲁": 38302,
  "VV": 46260,
  "氾": 30502,
  "▁älska": 10167,
  "atteggiamento": 27914,
  "▁γελ": 22826,
  "▁계획": 48262,
  "▁пря": 1289,
  "▁Бојан": 25492,
  "550": 55006,
  "ımıza": 1751,
  "遵守": 50851,
  "▁wet": 38211,
  "מילוי": 25282,
  "數位": 48587,
  "我的": 48303,
  "▁breyting": 2286,
  "▁2010": 12605,
  "▁설": 41998,
  "tari": 49690,
  "63)": 52754,
  "õhk": 2404,
  "нып": 6039,
  "▁neu": 38516,
  "▁ජාති": 8248,
  "nera": 52606,
  "▁muta": 44138,
  "種類": 42382,
  "▁populära": 6676,
  "▁കുഴ": 19925,
  "한다": 56260,
  "tarian": 55688,
  "▁പിന്നില": 24265,
  "कर्त": 9911,
  "ႀကိဳ": 23568,
  "tie": 23147,
  "że": 2349,
  "▁Dmitri": 16288,
  "gui": 16367,
  "툰": 26258,
  "doc": 35702,
  "alan": 55145,
  "撣": 32917,
  "▁United": 9964,
  "▁foot": 45400,
  "呃": 29196,
  "华": 51922,
  "▁übernehmen": 7880,
  "▁Nø": 56686,
  "▁عباد": 13945,
  "▁r": 15982,
  "▁Dziś": 3580,
  "▁Durant": 52636,
  "novi": 40104,
  "审": 44135,
  "▁impact": 31839,
  "pending": 56688,
  "▁Arabi": 7369,
  "▁돌아": 48895,
  "▁개선": 52859,
  "▁Belgi": 40013,
  "靦": 33456,
  "kret": 38132,
  "▁ventila": 55457,
  "▁prea": 21231,
  "▁duilleag": 23621,
  "珉": 30866,
  "於": 33921,
  "▁отпуска": 10207,
  "萁": 32580,
  "porn": 46398,
  "▁Міжнародни": 19103,
  "見": 39605,
  "现代": 38371,
  "▁[-]": 56983,
  "▁gyümölcs": 637,
  "▁te": 4795,
  "💪": 28292,
  "pa": 51065,
  "▁Үкімет": 4178,
  "愛情": 46266,
  "▁Источн": 13372,
  "pihak": 17379,
  "事業": 25944,
  "gri": 5548,
  "狂": 38422,
  "▁etapas": 3941,
  "▁APEC": 15664,
  "ruti": 56842,
  "▁점점": 20813,
  "جانب": 6256,
  "▁ρ": 47372,
  "▁کرلیا": 5788,
  "恫": 31687,
  "▁generator": 11024,
  "▁Fa": 35959,
  "思考": 34327,
  "▁Иска": 10656,
  "▁relax": 23241,
  "▁fjölbreytt": 22222,
  "▁uyumlu": 18170,
  "この機会に": 28675,
  "ÍS": 4055,
  "▁spricht": 9065,
  "▁трактор": 16077,
  "AIS": 42679,
  "▁žemiau": 26517,
  "咱": 25104,
  "▁mini": 51216,
  "▁میکرد": 15660,
  "guera": 10040,
  "发": 39391,
  "بولي": 10593,
  "កូ": 5009,
  "/3": 18446,
  "ITU": 44898,
  "ကျန်": 24071,
  "meng": 52976,
  "▁Lock": 52168,
  "nes": 10698,
  "</s_menutype_cnt>": 57553,
  "sonder": 57072,
  "▁late": 49960,
  "geri": 34962,
  "穴": 47924,
  "पाठ": 16974,
  "▁sub": 14375,
  "脯": 30392,
  "Pal": 52703,
  "▁conclu": 26033,
  "animation": 3617,
  "▁Mua": 42064,
  "▁garn": 50874,
  "oireacht": 22801,
  "▁parlamenti": 5714,
  "▁växa": 12189,
  "gunean": 12000,
  "不管": 38952,
  "▁begin": 57090,
  "組成": 56691,
  "早就": 55600,
  "鸯": 33109,
  "willig": 378,
  "correre": 15594,
  "▁proprie": 36866,
  "▁위해서": 5792,
  "фар": 1670,
  "ციული": 9078,
  "▁bari": 34971,
  "軋": 30323,
  "▁cúi": 643,
  "▁ప్రజలు": 2971,
  "信用": 41710,
  "▁space": 36833,
  "▁digital": 47218,
  "धाम": 14376,
  "▁znakom": 13434,
  "▁फेंक": 25342,
  "▁దిగ": 83,
  "▁потребители": 3990,
  "▁Ota": 46230,
  "▁것이다": 13481,
  "ህል": 8354,
  "prob": 51907,
  "thala": 54809,
  "zwi": 41644,
  "▁lime": 41927,
  "▁SAT": 50779,
  "弧": 27622,
  "▁immer": 38866,
  "不能": 43904,
  "▁síður": 13114,
  "▁pracowni": 21418,
  "▭": 33679,
  "lez": 36267,
  "hut": 28777,
  "▁230": 36031,
  "▁хоногийн": 7295,
  "▁eelmise": 8360,
  "运气": 25486,
  "▁AZ": 35090,
  "dham": 51717,
  "▁dw": 54186,
  "▁looking": 15137,
  "onto": 39849,
  "踢": 54459,
  "誥": 32481,
  "▁Nilai": 13312,
  "遏制": 26319,
  "▁Ska": 5614,
  "slov": 38257,
  "▁DIA": 47762,
  "": 30771,
  "▁강화": 55987,
  "▁получават": 13229,
  "广告": 38106,
  "kow": 51081,
  "▁гром": 16569,
  "市场的": 46235,
  "print": 37963,
  "亲戚": 27379,
  "arth": 54954,
  "▁Caso": 195,
  "ਰਜ": 6820,
  "▁Zen": 34184,
  "▁عاصم": 23434,
  "akin": 45305,
  "翀": 32320,
  "▁PH": 32219,
  "▁eedeeyay": 28568,
  "ကြ်န္": 26185,
  "▁cd": 44991,
  "▁out": 18404,
  "▁пропорц": 22038,
  "RAL": 47088,
  "銫": 32607,
  "▁Meng": 21179,
  "oqrafiya": 24592,
  "talk": 9539,
  "amma": 38305,
  "▁جنگی": 10212,
  "ционные": 12191,
  "ುತ್ತಲೇ": 21577,
  "clo": 47254,
  "做出": 35628,
  "▁Slu": 49766,
  "Өлгий": 28626,
  "ysk": 50570,
  "湃": 32311,
  "▁Българи": 26776,
  "▁EEUU": 24897,
  "▁DELFI": 2471,
  "▁میوه": 2002,
  "annut": 1960,
  "▁Saj": 41066,
  "▁предлагает": 6993,
  "langen": 53480,
  "▁Kedah": 48869,
  "▁June": 18699,
  "nggih": 1197,
  "▁ol": 42984,
  "權": 9916,
  "gem": 11308,
  "▁pojawiają": 17319,
  "▁tusken": 20583,
  "诉讼": 563,
  "▁لکڻ": 9978,
  "▁հակառակ": 22131,
  "kuha": 46478,
  "▁CA": 28004,
  "tegi": 36519,
  "実家": 23305,
  "玩具": 55071,
  "▁front": 7245,
  "nung": 38010,
  "小小": 9175,
  "뜸": 30271,
  "▁sedan": 46641,
  "▁gle": 48580,
  "YAR": 3379,
  "▁puke": 16007,
  "▁begge": 36835,
  "▁bhF": 21020,
  "▁hea": 16807,
  "▁Ev": 53241,
  "駅": 35129,
  "▁stosowanie": 25067,
  "ខ្លាច": 24066,
  "綵": 30959,
  "▁heutigen": 10515,
  "▁فخر": 6973,
  "系の": 15057,
  "好吃": 49230,
  "在這": 47694,
  "芻": 32448,
  "▁workshop": 40554,
  "▁mineral": 28304,
  "蓓": 30285,
  "▁khiếu": 22241,
  "Бібліятэка": 26335,
  "▁ζεστ": 18655,
  "▁verti": 56314,
  "▁videos": 25396,
  "饺": 30138,
  "▁Termin": 34783,
  "揉": 15483,
  "▁betalning": 6041,
  "ประการ": 16752,
  "▁තෙ": 682,
  "tré": 39482,
  "承諾": 9932,
  "的发展": 18591,
  "綬": 32659,
  "mid": 25511,
  "▁da": 41982,
  "▁Osman": 41692,
  "▁bytu": 2311,
  "": 29400,
  "pri": 43909,
  "▁캐": 48368,
  "tive": 42772,
  "▁creier": 14271,
  "잖": 28922,
  "ovice": 8636,
  "5)": 40711,
  "ag": 34630,
  "niu": 44947,
  "▁суроолор": 21191,
  "壩": 29989,
  "▁Disse": 36385,
  "১৫": 140,
  "spr": 42190,
  "菡": 32107,
  "▁εκλογικ": 23858,
  "▁daarvoor": 2109,
  "▁Vig": 53326,
  "osa": 40404,
  "▁bem": 43894,
  "▁sellaisia": 21380,
  "1,7": 19921,
  "▁Password": 16285,
  "ih": 1095,
  "▁перспектива": 18571,
  "▁Putin": 21166,
  "slav": 35611,
  "▁silencio": 7083,
  "▁links": 25999,
  "蟆": 32327,
  "ame": 13040,
  "gym": 56110,
  "톳": 33037,
  "▁Maar": 47831,
  "IDE": 38286,
  "▁ಸೆಟ್": 25842,
  "▁tunay": 1405,
  "贞": 29664,
  "unu": 3445,
  "などが": 57450,
  "▁Indah": 14655,
  "тельное": 7674,
  "得很": 55280,
  "▁Young": 41073,
  "▁ජනතා": 5977,
  "▁dram": 41807,
  "▁River": 36800,
  "楚": 53427,
  "▁한편": 52819,
  "壐": 33217,
  "Emp": 8418,
  "bu": 56907,
  "▁permanent": 35084,
  "▁이러한": 43905,
  "▁आउन": 492,
  "866": 18916,
  "▁саясаты": 6702,
  "▁pewne": 2782,
  "ép": 36660,
  "▁KONTAKT": 19995,
  "පද": 18339,
  "▁државно": 5626,
  "宏": 42435,
  "过程": 40674,
  "▁Chance": 51238,
  "▁წერილი": 16983,
  "▁دیکھی": 13644,
  "መላ": 2026,
  "▁Kada": 36064,
  "▁Ø": 8526,
  "▁boshqarish": 19914,
  "vita": 15693,
  "淒": 30637,
  "躉": 31793,
  "剪": 48946,
  "abh": 35744,
  "▁høyre": 4067,
  "▁Innova": 50996,
  "raya": 36667,
  "搪": 30702,
  "新华社": 1142,
  "▁ඉවරයි": 26010,
  "▁situasjonen": 21311,
  "ssu": 44442,
  "一枚": 20119,
  "el": 45601,
  "中国人": 50785,
  "▁Moto": 37008,
  "tesse": 48302,
  "▁Köln": 51418,
  "ದ್ರೆ": 5267,
  "▁retire": 54973,
  "ប៉": 57472,
  "▁עסקי": 8925,
  "▁Save": 47711,
  "▁massage": 46015,
  "日报": 54894,
  "▁Bass": 56670,
  "▁12": 40474,
  "보고": 50481,
  "▁sačuva": 24790,
  "▁Free": 43472,
  "绳": 23914,
  "擾": 8339,
  "▁alternat": 50993,
  "▁įstatymu": 26339,
  "nka": 584,
  "ZIONI": 22992,
  "▁גור": 1500,
  "▁written": 45907,
  "ァ": 28895,
  "dığında": 10801,
  "▁মানব": 13538,
  "MENTE": 21316,
  "싹": 29183,
  "free": 36618,
  "茗": 30074,
  "gum": 4443,
  "ؔ": 24224,
  "▁Τε": 19579,
  "▁tas": 36783,
  "us": 25824,
  "發展": 55913,
  "▁цивільного": 24912,
  "▁(2018)": 45636,
  "▁중": 44343,
  "ברר": 15203,
  "▁Put": 21302,
  "ვწერ": 18280,
  "▁Pink": 46146,
  "浴": 46586,
  "▁proba": 24939,
  "ダメージ": 24589,
  "应当": 38194,
  "濮": 31499,
  "▁најстари": 19840,
  "ios": 45492,
  "可惜": 52711,
  "BI": 14758,
  "逑": 32726,
  "▁SV": 38850,
  "周一": 18444,
  "的意见": 9914,
  "湳": 31404,
  "biler": 6957,
  "▁proposition": 54709,
  "ボード": 15389,
  "忡": 33597,
  "lion": 41469,
  "艾": 35801,
  "သင့်": 8510,
  "▁එල": 13458,
  "▁Максім": 13914,
  "▁іншу": 24280,
  "നങ്ങള്": 1936,
  "▁Ko": 5136,
  "▁ஒன்": 19802,
  "เป้าหมาย": 1599,
  "额": 26881,
  "連結": 50464,
  "обо": 3324,
  "▁interpretar": 7326,
  "钉": 28544,
  "randi": 55998,
  "▁ہوا۔": 577,
  "▁gin": 36567,
  "人生": 8840,
  "used": 37254,
  "▁asked": 38518,
  "淵": 28929,
  "\".": 50418,
  "▁jag": 52451,
  "halter": 16945,
  "BG": 53690,
  "▁հերթին": 18274,
  "▁Trọng": 9317,
  "▁등을": 35968,
  "她的": 16086,
  "sho": 3590,
  "鬪": 32886,
  "▁coma": 39985,
  "▁sound": 41542,
  "戍": 31647,
  "▁Mitchell": 18587,
  "▁आपला": 5980,
  "▁cercando": 8916,
  "▁കിട്ടുന്ന": 23001,
  "▁Graz": 6359,
  "慢": 35601,
  "を持つ": 52042,
  "▁Phong": 44602,
  "anie": 51688,
  "▁pent": 44621,
  "的内容": 49210,
  "▁гордост": 19236,
  "紧张": 50229,
  "▁түмэн": 12124,
  "iser": 23819,
  "▁kraujo": 16487,
  "▁פריי": 17373,
  "▁relations": 55337,
  "となりました": 4421,
  "賊": 24436,
  "มาฝาก": 25776,
  "▁Pun": 37491,
  "۞": 30722,
  "走了": 44653,
  "▁Prodej": 19014,
  "▁concentr": 55677,
  "憊": 29569,
  "▁parallel": 56249,
  "leyebilirsiniz": 15391,
  "巨": 36359,
  "oby": 41321,
  "conf": 49371,
  "▁rõhu": 16274,
  "▁bölmə": 2203,
  "▁70": 27861,
  "▁උත්සාහ": 4305,
  "uu": 16894,
  "▁Promo": 27739,
  "넹": 32258,
  "ඥ": 14774,
  "hake": 49424,
  "sé": 26768,
  "Ang": 44093,
  "诃": 31522,
  "中華民國": 14287,
  "dico": 44713,
  "mika": 48814,
  "▁리": 26761,
  "▁ori": 56189,
  "دىمۇ": 23873,
  "分成": 18777,
  "▁bestimmten": 5917,
  "嫦": 30326,
  "familj": 25150,
  "▁queria": 786,
  "鰹": 31607,
  "征": 34150,
  "▁Que": 45578,
  "▁문제가": 55154,
  "▁понрави": 5563,
  "malt": 35346,
  "▁hardcore": 28478,
  "SIN": 54588,
  "绡": 33002,
  "ることができ": 12365,
  "fore": 54829,
  "live": 28499,
  "uré": 5016,
  "笨": 16795,
  "狛": 33266,
  "▁kasutades": 5134,
  "更好的": 40362,
  "▁1983": 34545,
  "īns": 7034,
  "土耳其": 6527,
  "▁Tähän": 20407,
  "숍": 25389,
  "arum": 34142,
  "▁snovi": 15466,
  "쿠": 40622,
  "▁obmedz": 251,
  "▁Duration": 52111,
  "▁sen": 11701,
  "▁povus": 3832,
  "▁รอง": 3728,
  "その": 36706,
  "ils": 51789,
  "▁Landwirtschaft": 25708,
  "ड्र": 14738,
  "▁access": 16609,
  "Vi": 48045,
  "▁эв": 2848,
  "皈": 30462,
  "bol": 50137,
  "▁maju": 40758,
  "▁купил": 20806,
  "自我": 34546,
  "hatta": 5555,
  "követ": 10876,
  "釋": 8528,
  "▁scientific": 45354,
  "▁sanit": 3132,
  "iniuose": 4272,
  "IRE": 48558,
  "▁meclis": 17817,
  "အသုံး": 15872,
  "wasilisha": 16963,
  "lande": 36124,
  "蘋": 31107,
  "你在": 56764,
  "年来": 52260,
  "menti": 6140,
  "▁ultima": 23251,
  "da": 53277,
  "vre": 8764,
  "▁Andhra": 36309,
  "ヂ": 31549,
  "▁raz": 21214,
  "日至": 45931,
  "слови": 18664,
  "mbo": 50917,
  "酰": 29928,
  "通用": 5238,
  "▁الموافق": 11296,
  "▁Spi": 37116,
  "球隊": 11849,
  "미": 45022,
  "安卓": 26194,
  "▁eg": 35833,
  "▁Aarhus": 50201,
  "▁사회": 34916,
  "cita": 36007,
  "edu": 12464,
  "effect": 16556,
  "▁Budget": 56337,
  "▁Sof": 52723,
  "했는데": 51237,
  "▁become": 28693,
  "▁különösen": 4596,
  "▁பயன்": 11298,
  "へ": 7941,
  "boa": 51015,
  "isen": 45612,
  "IEL": 5244,
  "تصاویر": 27471,
  "cado": 38961,
  "pene": 50543,
  "должительность": 23802,
  "valent": 53687,
  "谕": 31894,
  "졌": 52466,
  "ipari": 53191,
  "게임": 42192,
  "▁kokiu": 17021,
  "▁Le": 47256,
  "▁77": 10094,
  "▁krekt": 24205,
  "ленген": 10475,
  "连续": 45477,
  "▁Прем": 10628,
  "▁terror": 23615,
  "ngkok": 7282,
  "▁Mtendaji": 11811,
  "▁finger": 43395,
  "▁dnevne": 23799,
  "เซล": 11299,
  "मंड": 9518,
  "Ï": 29331,
  "電": 47139,
  "最佳": 35442,
  "▁Corona": 21434,
  "首先": 28226,
  "▁nicio": 3781,
  "▁Warto": 48896,
  "研发": 37801,
  "寂": 55791,
  "اين": 4715,
  "rite": 19783,
  "uit": 49654,
  "重点": 26444,
  "▁специално": 5316,
  "▁Nielsen": 54762,
  "lur": 11380,
  "▁PER": 52651,
  "▁힘": 48064,
  "예": 16834,
  "危害": 48571,
  "▁Word": 26340,
  "間に": 51626,
  "▁Golf": 27653,
  "átok": 12454,
  "谬": 29549,
  "ram": 25462,
  "▁platby": 16987,
  "王": 39155,
  "▁affect": 43781,
  "gay": 36579,
  "報告": 34461,
  "人たち": 55916,
  "铬": 31438,
  "aja": 54761,
  "▁Nech": 52402,
  "▁spécialisé": 4470,
  "빈": 56759,
  "회계": 21560,
  "一生": 43628,
  "获得": 9139,
  "▁kompil": 10669,
  "ជាប់": 11105,
  "뿡": 32646,
  "懾": 30312,
  "▁любых": 11656,
  "▁Akademiyası": 11153,
  "ўшыся": 18357,
  "▁magic": 42949,
  "▁Riv": 54547,
  "▁Beck": 50949,
  "▁соочува": 27015,
  "euro": 50390,
  "yti": 15675,
  "▁Single": 40809,
  "▁USA": 41646,
  "▁Pep": 50163,
  "▁dobio": 2312,
  "晒": 4960,
  "ám": 47034,
  "▁spoločné": 22168,
  "▁Layihə": 21754,
  "ରିକ": 7882,
  "▁Bona": 52304,
  "евдин": 10370,
  "分鐘": 26558,
  "2016": 40023,
  "富含": 25437,
  "左": 19997,
  "▁Wakil": 6149,
  "قاع": 8777,
  "ର୍ଟ": 7839,
  "9°": 12446,
  "друго": 11036,
  "飲んで": 14023,
  "▁মাসে": 21472,
  "걸": 41904,
  "▁search": 37326,
  "▁تعامل": 1925,
  "相": 42279,
  "▁войска": 11281,
  "▁1,8": 45034,
  "冰淇淋": 25520,
  "▁تواجه": 18841,
  "觀眾": 50980,
  "▁일": 47947,
  "▁алкоголь": 6053,
  "mayan": 44014,
  "▁Hľadá": 26754,
  "満": 38469,
  "KIA": 51223,
  "提起": 6661,
  "ാർഥ": 28311,
  "2008": 14937,
  "▁airbag": 23968,
  "QA": 50121,
  "▁invent": 34565,
  "vum": 38680,
  "▁Transport": 23685,
  "▁imposto": 53616,
  "▁૨૦૦": 25834,
  "的价值": 11662,
  "▁creativitat": 25077,
  "▁അല്ലെങ്കിൽ": 23260,
  "▁Condi": 41752,
  "los": 28419,
  "俱樂部": 24672,
  "▁Pret": 52186,
  "द्वि": 18846,
  "ánach": 9159,
  "▁Notre": 43676,
  "MW": 7485,
  "▁Mika": 55546,
  "▁මැන": 26311,
  "됬": 30856,
  "▁SY": 44841,
  "stavila": 12997,
  "ù": 53856,
  "甩": 19980,
  "▁الطبي": 19211,
  "蔷": 33365,
  "▁Loc": 54565,
  "lett": 38587,
  "რეზ": 15888,
  "אנען": 26598,
  "▁Cinema": 39744,
  "φί": 15956,
  "▁few": 2194,
  "货币": 50039,
  "▁morbi": 54125,
  "▁Spur": 48932,
  "濃厚": 26983,
  "tro": 35625,
  "▁Sina": 43362,
  "ione": 22951,
  "▁পারবে": 24194,
  "枱": 31225,
  "▁пружи": 14612,
  "▁verkisto": 19096,
  "编": 36163,
  "▁navodno": 24717,
  "▁اللعب": 19245,
  "wand": 28191,
  "芳": 47004,
  "▁Fit": 25090,
  "▁게임": 34649,
  "▁properties": 18995,
  "▁motsvarar": 28682,
  "想象": 50916,
  "TIR": 55995,
  "추천": 55990,
  "▁فورا": 5764,
  "▁collection": 40428,
  "ระยอง": 17256,
  "▁Uniti": 4714,
  "找到": 12579,
  "gruppe": 41462,
  "▁gadget": 54385,
  "와의": 7111,
  "べ": 46587,
  "oni": 40835,
  "▁उज": 5470,
  "鱷": 29656,
  "ацијом": 12489,
  "▁مصروف": 5648,
  "abel": 50451,
  "If": 55256,
  "抱": 33555,
  "▁നിത്യ": 23484,
  "孀": 33412,
  "▁brut": 44579,
  "ఊ": 30084,
  "buch": 36993,
  "zuk": 41768,
  "▁tirkî": 25021,
  "▁Diamond": 48974,
  "oty": 49848,
  "システム": 40746,
  "LAB": 54786,
  "lähetys": 25920,
  "နစ္": 4077,
  "뺄": 31864,
  "וויל": 21488,
  "▁পেয়ে": 774,
  "孵化": 27210,
  "▁ដើម": 2038,
  "▁vision": 38764,
  "當然": 35259,
  "▁dru": 34304,
  "bruk": 18634,
  "▁جميعا": 8979,
  "ement": 45901,
  "▁Schau": 53577,
  "▁1986": 25088,
  "itia": 39786,
  "踉": 31600,
  "گذاری": 3584,
  "stas": 37657,
  "▁vii": 13014,
  "向かう": 27627,
  "▁franquista": 25673,
  "秘密": 53069,
  "▁comparación": 21087,
  "会上": 48916,
  "▁‘’": 44549,
  "▁deep": 44211,
  "ων": 42995,
  "alit": 45721,
  "▁cansa": 57424,
  "埼": 29689,
  "▁MODEL": 22193,
  "鐙": 32376,
  "▁Card": 27972,
  "▁Henrik": 44316,
  "▁Fórum": 6703,
  "▁ਵਿਚੋਂ": 16817,
  "공사": 55491,
  "സീ": 5535,
  "하지": 3292,
  "mbra": 7098,
  "婪": 33719,
  "▁Live": 55606,
  "増": 47545,
  "荻": 31189,
  "dili": 34862,
  "目標": 28341,
  "▁culture": 35577,
  "恢复": 47731,
  "▁Kniha": 23350,
  "▁priprema": 3933,
  "sama": 4690,
  "塗": 44505,
  "ough": 49857,
  "▁Rod": 27929,
  "vene": 39264,
  "▁şaşır": 17860,
  "▁ಹಂತ": 6954,
  "▁Аф": 4432,
  "이며": 37328,
  "▁مشاعر": 21229,
  "▁աշխատանքային": 3698,
  ").": 20759,
  "▁പ്രീ": 20537,
  "찐": 30528,
  "님": 24272,
  "bani": 46642,
  "濱": 9244,
  "蹩": 33056,
  "▁sten": 38349,
  "▁gull": 55299,
  "醺": 31079,
  "▁कसैले": 11648,
  "vende": 43343,
  "▁vyhr": 10117,
  "▁sorry": 45898,
  "raq": 47430,
  "βλη": 4916,
  "▁العاملين": 19655,
  "atos": 46315,
  "▁सिम": 10389,
  "吒": 31132,
  "大力": 40033,
  "籁": 33445,
  "둠": 29462,
  "straße": 49795,
  "浙江": 49917,
  "▁mendoj": 7267,
  "百度": 51470,
  "▁ببر": 453,
  "▁вежба": 10259,
  "閾": 32623,
  "卷": 36216,
  "øvelse": 3997,
  "▁Hazır": 12477,
  "巩": 30780,
  "▁আনা": 24802,
  "ੰਸ": 8981,
  "▁philosophi": 57429,
  "▁truth": 53545,
  "▁Սահմանադր": 24413,
  "▁cat": 50759,
  "▁träna": 6436,
  "ඈ": 31392,
  "▁јавног": 9820,
  "ruv": 11859,
  "▁supra": 19996,
  "muna": 52004,
  "펑": 29463,
  "lein": 38894,
  "新西兰": 11806,
  "▁Samuel": 45926,
  "": 30987,
  "▁contesta": 52776,
  "▁state": 3415,
  "ຫ້ອງການ": 18277,
  "👧": 30799,
  "ists": 47532,
  "▁pendant": 28835,
  "▁Dhar": 16565,
  "ບໍ່ໄດ້": 12886,
  "▁kata": 37490,
  "▁referendum": 38649,
  "ማሪ": 6142,
  "▁श्रद्धा": 8408,
  "▁ehtiyoj": 24305,
  "▁مشت": 8116,
  "▁هفتم": 18534,
  "ttujen": 12599,
  "നീര്": 25713,
  "꼿": 32645,
  "z": 15811,
  "▁Bergen": 35456,
  "▁Low": 46577,
  "美女": 48178,
  "▁способов": 18459,
  "▁අස්": 4631,
  "sab": 43039,
  "お客様の": 50939,
  "festival": 40936,
  "izace": 3608,
  "唐": 35339,
  "▁dizanin": 27462,
  "▁Maxim": 41824,
  "깬": 31668,
  "samt": 42680,
  "再加上": 55107,
  "DG": 53362,
  "▁أكدت": 23052,
  "▁Cr": 40194,
  "▁byla": 7871,
  "都可以": 38650,
  "犯罪": 38773,
  "ckt": 36625,
  "吭": 30316,
  "เชิญ": 371,
  "▁86": 16764,
  "▁sağlanması": 27147,
  "▁Active": 54474,
  "▁fag": 8682,
  "▁قوية": 14673,
  "too": 32526,
  "講": 23950,
  "ઇમ": 24431,
  "leni": 37855,
  "G": 49933,
  "нууд": 12018,
  "ine": 5341,
  "Ոստիկան": 26536,
  "▁relativ": 38799,
  "▁разрешен": 9528,
  "boll": 51803,
  "▁qilindi": 5346,
  "▁አሉ።": 23428,
  "/18": 41392,
  "/15": 41243,
  "▁שמן": 8639,
  "▁Lång": 21066,
  "▁zona": 41436,
  "▁کتابوں": 20752,
  "▁публичн": 4507,
  "▁יורק": 15718,
  "5.8": 12676,
  "перспасылк": 26262,
  "▁Make": 34283,
  "▁உத": 20456,
  "ឃុំ": 21140,
  "儚": 33275,
  "lami": 48652,
  "itat": 46681,
  "▁Vul": 42352,
  "▁জনাব": 25677,
  "పర": 8265,
  "儿": 10315,
  "перс": 11003,
  "衝": 51202,
  "ská": 45772,
  "調": 1436,
  "▁slave": 56180,
  "撸": 29057,
  "▁אליו": 1706,
  "rū": 34564,
  "ños": 37596,
  "ətlə": 19879,
  "angel": 47673,
  "stille": 55586,
  "▁meter": 4800,
  "gili": 42230,
  "▁הצליח": 11242,
  "亿": 23480,
  "▁කිහිප": 10583,
  "▁영역": 12911,
  "മാക്ക": 190,
  "囝": 31440,
  "隈": 31006,
  "▁მასთან": 15337,
  "怪": 26233,
  "gada": 15235,
  "▁살": 32158,
  "充滿": 42197,
  "経験": 34969,
  "▁његовим": 12650,
  "日の": 38948,
  "▁Moll": 56793,
  "缚": 29192,
  "▁Amb": 651,
  "IO": 17774,
  "を見": 36038,
  "手术": 48031,
  "PIC": 6549,
  "▁waiting": 54718,
  "補": 27600,
  "nent": 49478,
  "튬": 30498,
  "ប៉ុណ្ណោះ": 3803,
  "▁cred": 762,
  "醃": 28938,
  "▁gutes": 4717,
  "śmy": 5829,
  "▁රිකා": 9576,
  "oki": 40543,
  "影响力": 52145,
  "El": 51073,
  "Kur": 41240,
  "Ch": 14046,
  "▁وفادار": 20104,
  "▁dòcha": 23183,
  "鳯": 32905,
  "▁Kasi": 57014,
  "UMA": 41781,
  "▁너": 49283,
  "СТРА": 11899,
  "▁spremni": 13508,
  "歯": 43509,
  "坚实": 23753,
  "抻": 32546,
  "▁tasarlanmış": 23979,
  "стрем": 6981,
  "IDADE": 1845,
  "qui": 36505,
  "▁plan": 17657,
  "បុរស": 15764,
  "▁pressure": 52513,
  "缪": 29787,
  "sled": 15989,
  "鳴": 57009,
  "dez": 34584,
  "▁escort": 53412,
  "prema": 2554,
  "僞": 32889,
  "▁Milan": 29475,
  "▁Hindi": 43067,
  "ಔ": 26682,
  "暂停": 24559,
  "trip": 46076,
  "ICK": 4107,
  "兩個": 37827,
  "▁Transfer": 50305,
  ")。": 10273,
  "▁æ": 35022,
  "LEX": 54423,
  "现有": 56186,
  "▁Mate": 33111,
  "十六": 213,
  "▁Kaza": 46837,
  "▁wettelijk": 23040,
  "ليا": 4982,
  "▁Keep": 53027,
  "केश": 291,
  "する": 17903,
  "Er": 19154,
  "机遇": 54724,
  "▁Pic": 34981,
  "ලක්": 7139,
  "▁نقص": 8793,
  "濃": 46157,
  "▁Kerst": 12474,
  "elen": 34113,
  "▁불구하고": 18976,
  "暧": 29757,
  "巷": 50042,
  "bygd": 51099,
  "▁1954": 42234,
  "ಶೀಲ": 21405,
  "mee": 45576,
  "发改委": 25106,
  "窿": 30902,
  "▁rood": 19124,
  "▁ხანია": 26292,
  "뜬": 29281,
  "▁Anton": 37078,
  "▁minuti": 34041,
  "▁szolgáltatások": 1395,
  "▁Give": 51558,
  "हृ": 6666,
  "뻡": 32849,
  "蚝": 32178,
  "▁Heim": 44893,
  "专利": 56007,
  "▁weeks": 39846,
  "▁aeternum": 28474,
  "▁himla": 14874,
  "▁dorm": 1230,
  "Σχολ": 19529,
  "▁Herri": 48462,
  "怎麼": 35005,
  "ესა": 10217,
  "▁Fix": 56672,
  "▁frutti": 25696,
  "assurance": 50854,
  "▁Johor": 47210,
  "▁Kirche": 56394,
  "▁पर्वत": 7096,
  "▁princip": 31695,
  "楠": 25181,
  "關於": 45770,
  "▁qaataan": 27350,
  "▁кажете": 18062,
  "標": 34161,
  "渠": 29259,
  "烊": 33611,
  "▁burn": 56698,
  "擋": 15705,
  "▁concetto": 19402,
  "shka": 51942,
  "開發": 34582,
  "蘿蔔": 25852,
  "肩": 41760,
  "ंमध्ये": 12211,
  "▁Ort": 6100,
  "▁γ": 6916,
  "尿": 47703,
  "鮮": 39833,
  "▁کنونی": 19109,
  "eh": 2680,
  "▁Caribbean": 26060,
  "ዽ": 32947,
  "房地产": 46401,
  "일보": 54455,
  "▁Kao": 43225,
  "▁Weise": 46457,
  "教會": 3532,
  "ik": 51648,
  "▁вёска": 20097,
  "▁bajenn": 15424,
  "逃": 35670,
  "▁növel": 1184,
  "gis": 7359,
  "▁accessible": 52615,
  "▁Wir": 37109,
  "ý": 15650,
  "▁hərbçi": 22466,
  "▁Срок": 16237,
  "YO": 36691,
  "▁mez": 46007,
  "▁sous": 6445,
  "なんだ": 4040,
  "zek": 15008,
  "▁Gizarte": 9693,
  "ກໍໄດ້": 25725,
  "don": 41089,
  "▁бош": 7385,
  "▁sla": 11645,
  "weg": 7210,
  "窪": 30431,
  "企业": 35802,
  "饷": 31637,
  "kontoret": 663,
  "▁진": 15659,
  "▁şekil": 8204,
  "▁rematar": 8865,
  "❁": 30817,
  "fru": 27235,
  "▁meme": 41987,
  "▁women": 32257,
  "гурт": 18472,
  "33": 55416,
  "▁vizibil": 8501,
  "tha": 36741,
  "bera": 35861,
  "▁Petit": 50828,
  "▁Math": 51824,
  "▁satunya": 2016,
  "▁These": 36690,
  "▁Pois": 47499,
  "nh": 47582,
  "源": 56810,
  "ਗਲ": 1768,
  "削除": 5119,
  "થે": 9727,
  "▁lancer": 55393,
  "ИГ": 823,
  "▁joukko": 10736,
  "ring": 35242,
  "▁Swi": 1428,
  "▁Duitse": 5302,
  "▁—": 35477,
  "▁pig": 44067,
  "▁Torsdag": 13491,
  "難以": 55760,
  "▁ئەمەل": 16149,
  "沥": 30555,
  "▁wants": 53874,
  "▁gyn": 35115,
  "onen": 33981,
  "达": 55419,
  "条例": 48890,
  "▁Pali": 55568,
  "▁विष्ट": 24487,
  "不够": 49941,
  "▁Galaxy": 8234,
  "算": 108,
  "▁Tsa": 8154,
  "▁बँके": 25420,
  "▁karşılık": 9266,
  "▁Alapítvány": 14044,
  "สมเด็จพระ": 6323,
  "▁heldu": 2733,
  "▁Willem": 1034,
  "තුංග": 14230,
  "▁Organiz": 40752,
  "ару": 57003,
  "▁modd": 57033,
  "▁ویبپاڼ": 5779,
  "▁Ris": 28578,
  "▁screenshot": 23766,
  "▁Programı": 12831,
  "9.9": 17500,
  "▁spre": 44574,
  "と思っています": 51266,
  "▁α": 46070,
  "领": 21019,
  "▁остварува": 24615,
  "ūs": 12433,
  "놔": 29973,
  "e": 5051,
  "▁tran": 35951,
  "00": 49351,
  "▁알": 13766,
  "greg": 48846,
  "▁attesta": 13389,
  "▁310": 53841,
  "ரம": 3639,
  "▁Pavlov": 19494,
  "ການຄຸ້ມຄອງ": 26100,
  "理解": 3549,
  "れない": 48308,
  "▁shkelje": 21711,
  "▁Ono": 56572,
  "古": 50043,
  "▁Alba": 26600,
  "▁dh": 3689,
  "▁Wy": 44545,
  "PP": 17156,
  "霭": 32292,
  "鬍": 29716,
  "アル": 48120,
  "kut": 54739,
  "闇": 26797,
  "텝": 33689,
  "PV": 46998,
  "▁Folge": 53635,
  "▁lys": 23129,
  "ต้ม": 16743,
  "▁কমিটি": 12899,
  ":21": 34078,
  "97": 11429,
  "vulling": 8138,
  "osi": 6541,
  "▁egenskaber": 26621,
  "niczych": 1603,
  "poste": 2084,
  "▁sett": 56527,
  "▁excellent": 39855,
  "olog": 9892,
  "▁geo": 23469,
  "▁elsősorban": 3922,
  "อบอุ่น": 25870,
  "︎": 29464,
  "▁ଚଳିତ": 20705,
  "ឱកាស": 3694,
  "▁noyabr": 2174,
  "uw": 19694,
  "▁demandé": 2180,
  "力的": 51200,
  "▁contado": 19860,
  "▁അതിനെ": 12654,
  "发布": 28611,
  "膊": 31907,
  "▁184": 49399,
  "▁1955": 42024,
  "▁khan": 49264,
  "ກວດ": 14013,
  "ー": 42070,
  "▁pea": 14777,
  "ឈរ": 23981,
  "send": 39318,
  "tomi": 42312,
  "▁කෙරේ": 21534,
  "については": 38260,
  "หรู": 15003,
  "tory": 36451,
  "▁Golden": 40650,
  "iker": 42200,
  "鳗": 32266,
  "hatod": 17943,
  "卧": 13543,
  "▁Gel": 4375,
  "텔": 52327,
  "今回": 45507,
  "▁wah": 48813,
  "▁بیٹھے": 17602,
  "▁Makro": 15703,
  "▁Nú": 39578,
  "ರ್ಯ": 3402,
  "▁50%": 55095,
  "理論": 55938,
  "▁Արա": 11690,
  "▁قرية": 20498,
  "ヶ月": 43066,
  "▁täynnä": 11962,
  "pravljanje": 12407,
  "▁iso": 9472,
  "upe": 42999,
  "위를": 51698,
  "鸕": 32968,
  "▁kariér": 11674,
  "▁Koko": 39550,
  "会员": 50292,
  "馅": 30195,
  "总结": 45963,
  "▁Divers": 50653,
  "955": 19697,
  "▁Valle": 49799,
  "▁recebi": 1839,
  "estero": 1378,
  "tre": 35514,
  "▁рукой": 14161,
  "ល្បឿន": 27905,
  "iyang": 49570,
  "длын": 435,
  "TS": 6899,
  "記者會": 21228,
  "dyr": 44165,
  "▁Dit": 35858,
  "eño": 45092,
  "ความสัมพันธ์": 17547,
  "你要": 50768,
  "lago": 49214,
  "▁trendy": 77,
  "▁apei": 15605,
  "</s_sub_total>": 57533,
  "学院": 18440,
  "លឿន": 19661,
  "பார": 1563,
  "▁ster": 35058,
  "STAN": 50933,
  "▁talabalar": 6420,
  "捐": 277,
  "一定": 11754,
  "▁minister": 28783,
  "IVO": 5330,
  "▁কমিটির": 14233,
  "เงี่ยน": 16879,
  "▁territori": 40739,
  "▁hun": 20659,
  "▁points": 34557,
  "邗": 32329,
  "▁korting": 1107,
  "ming": 11010,
  "veti": 43954,
  "▁nêu": 9850,
  "模型": 49611,
  "▁svake": 56918,
  "/8": 27810,
  "леныя": 16494,
  "▁недељу": 23536,
  "kto": 37604,
  "mning": 50351,
  "▁Minimum": 16961,
  "去了": 41400,
  "鑣": 33357,
  "▁Datenbank": 24826,
  "▁scene": 35163,
  "нуцца": 6377,
  "▁Laboral": 21890,
  "मंत्र": 16410,
  "▁rapid": 34054,
  "puls": 48952,
  "▁Teil": 14197,
  "▁iyagoo": 13696,
  "▁alter": 38551,
  "शः": 7142,
  "炯": 30141,
  "▁BN": 35919,
  "▁AH": 48603,
  "ວັດທະນະທໍາ": 8404,
  "▁ഫോൺ": 26952,
  "▁sal": 13026,
  "zle": 43437,
  "ヶ": 21646,
  "▁relevan": 54773,
  "▁Diario": 9108,
  "বাজার": 6159,
  "▁Care": 23379,
  "▁Bat": 25421,
  "▁hegy": 3681,
  "hlen": 51647,
  "laya": 28405,
  "oder": 43558,
  "▁사실": 39073,
  "觐": 32755,
  "▁Stone": 41983,
  "三个": 40249,
  "ಜ್ಯೋತಿ": 27397,
  "рыць": 5088,
  "חוף": 1236,
  "▁השונות": 25883,
  "▁Jon": 24251,
  "﴿": 29803,
  "▁grati": 7922,
  "γύρ": 23746,
  "ಿಸುತ್ತಿದ್ದ": 22028,
  "▁pru": 33943,
  "▁مانا": 12520,
  "▁Cart": 53585,
  "wsze": 747,
  "▁imtina": 11554,
  "澡": 25789,
  "教室": 45190,
  "残疾人": 21737,
  "▁krajín": 19159,
  "▁break": 38226,
  "▁elu": 20685,
  "使わない": 25433,
  "▁sweet": 44144,
  "▁przygotowanie": 19703,
  "轟": 21990,
  "leştiril": 11500,
  "▁دشوار": 13489,
  "vention": 45285,
  "নিউজ": 11950,
  "▁Hod": 55819,
  "▁прыём": 17275,
  "▁sol": 36254,
  "13)": 47186,
  "刚刚": 44845,
  "▁цогц": 27300,
  "▁moderat": 49720,
  "▁kézi": 3022,
  "cent": 15802,
  "rún": 7394,
  "▁->": 37000,
  "▁just": 15366,
  "▁claims": 9846,
  "砰": 29980,
  "책": 42132,
  "÷": 53031,
  "legg": 37524,
  "จิตใจ": 16293,
  "陸": 42807,
  "針對": 39364,
  "mod": 8375,
  "从事": 41614,
  "▁tabu": 46131,
  "▁Content": 49480,
  "肴": 29436,
  "rime": 45443,
  "▁ठान": 27686,
  "處": 54317,
  "▁2014.": 53358,
  "if": 36539,
  "▁Brian": 48132,
  "▁4-5": 39383,
  "технолог": 4316,
  "▁mampi": 6717,
  "գործ": 56916,
  "最终": 27023,
  "必": 6809,
  "ók": 10009,
  "ors": 33950,
  "เกษม": 28162,
  "raid": 7536,
  "▁entire": 47479,
  "▁Develop": 25352,
  "▁réteg": 10797,
  "▁Supra": 8631,
  "▁Lara": 3906,
  "春季": 24819,
  "ড়ে": 392,
  "國": 44377,
  "屎": 29147,
  "▁tank": 36676,
  "h": 6522,
  "▁Living": 40845,
  "咆": 30551,
  "▁Habe": 56078,
  "бактылуу": 6648,
  "🌞": 30687,
  "🍋": 32039,
  "▁Ingen": 27925,
  "▁26,": 35657,
  "▁Weg": 21994,
  "ffin": 45825,
  "▁3-1": 214,
  "▁Rang": 36788,
  "▁imani": 6321,
  "如": 37057,
  "ลืม": 5332,
  "▁invers": 56229,
  "發": 42850,
  "▁이에": 51050,
  "▁rev": 38782,
  "年代": 27585,
  "革命": 40088,
  "▁Minimal": 4870,
  "▁alıp": 9619,
  "▁Advent": 54836,
  "mur": 43398,
  "互動": 49364,
  "ົ້າ": 11414,
  "▁milli": 54558,
  "▁Johannes": 40627,
  "analyse": 45652,
  "▁lido": 55196,
  "ُّ": 12604,
  "bis": 47573,
  "礡": 30781,
  "▁Besar": 39132,
  "▁greš": 12869,
  "лювати": 1063,
  "tsin": 43739,
  "טיבי": 18039,
  "շնորհ": 2799,
  "comercialización": 26854,
  "▁ani": 19508,
  "▁sor": 46854,
  "곤": 52286,
  "깝": 33789,
  "런": 39660,
  "▁دادم": 16700,
  "▁श्रम": 7123,
  "▁plans": 39064,
  "曼": 35182,
  "▁لکي": 1857,
  "▁resta": 24033,
  "▁Qab": 56749,
  "cole": 41918,
  "説": 53023,
  "▁energetic": 43349,
  "▁FBI": 53036,
  "געשטעלט": 20252,
  "▁визнан": 26378,
  "▁چای": 10512,
  "▁Код": 57478,
  "myn": 47546,
  "▁Maqal": 20131,
  "▁Vestfold": 20258,
  "▁realizuar": 17811,
  "▁handler": 38045,
  "▁Agora": 40631,
  "▁трудовой": 24332,
  "▁gelekî": 18849,
  "▁Coupe": 16234,
  "同樣": 48722,
  "企业的": 43128,
  "gjöld": 23066,
  "▁amin": 19182,
  "簽署": 27780,
  "▁Portal": 16229,
  "▁Tok": 48090,
  "영어": 14772,
  "aye": 34640,
  "▁قىر": 18573,
  "nud": 36528,
  "罘": 32770,
  "iyan": 19185,
  "126": 51402,
  "电子": 35319,
  "▁Enkelt": 15499,
  "▁quota": 52666,
  "▁чейинки": 17867,
  "諗": 30069,
  "ქტი": 5415,
  "事態": 22609,
  "▁mleka": 18876,
  "▁Cet": 52581,
  "▁шкіл": 13061,
  "▁Alp": 42122,
  "loq": 45590,
  "▁pulis": 13987,
  "▁Inform": 35752,
  "추출물": 21984,
  "纷纷": 54989,
  "▁خسته": 10791,
  "roz": 9817,
  "▁GU": 42362,
  "冗": 29114,
  "Si": 54511,
  "벰": 32867,
  "造型": 43756,
  "▁suspens": 49890,
  "▁webb": 47932,
  "▁rico": 27492,
  "സമ്പ": 8455,
  "349": 4500,
  "▁Grey": 56478,
  "▁gale": 47418,
  "❥": 30217,
  "양": 2044,
  "▁түүхий": 17961,
  "▁rəisi": 6597,
  "▁(6)": 48600,
  "▁बनाएको": 9963,
  "▁ବିଜୁ": 12986,
  "廚": 56890,
  "rgan": 25687,
  "哉": 28889,
  "▁رج": 1933,
  "▁Genom": 43811,
  "vide": 37049,
  "냄": 29135,
  "▁kommentere": 20845,
  "▁Dag": 9689,
  "锉": 32894,
  "▁BER": 22214,
  "ίσματος": 19000,
  "▁1-0": 45410,
  "▁Lamp": 48960,
  "▁ההורים": 18325,
  "Uni": 53705,
  "▁happened": 50348,
  "▁judicial": 52223,
  "签": 44166,
  "超级": 56338,
  "▁demokratisk": 20458,
  "impa": 50942,
  "連續": 52815,
  "día": 44491,
  "შვილის": 5543,
  "대행": 11865,
  "瞩": 33781,
  "▁Franci": 53967,
  "amicizia": 27088,
  "▁Halloween": 49286,
  "▁dotyczy": 2064,
  "▁fier": 39123,
  "▁这": 47413,
  "ಂಡು": 19979,
  "治療": 12223,
  "</s_price>": 57531,
  "履行": 53419,
  "হাট": 22189,
  "▁ሆነው": 1117,
  "丐": 30164,
  "▁Madrid": 54576,
  "ysa": 44794,
  "▁Sar": 50373,
  "运": 20331,
  "▁Maio": 7137,
  "זין": 2584,
  "몹": 29906,
  "eng": 8129,
  "née": 39561,
  "干": 57006,
  "ซี่": 57183,
  "▁구조": 55603,
  "ництва": 12102,
  "aaseen": 25711,
  "▁uno": 36851,
  "▁fin": 26583,
  "▁anonym": 43685,
  "▁Aus": 44536,
  "tum": 34053,
  "奴": 55183,
  "hah": 43338,
  "휼": 32059,
  "秉": 29163,
  "섶": 32850,
  "gar": 21510,
  "▁ficción": 21795,
  "rana": 13756,
  "luci": 49786,
  "▁gigant": 48547,
  "▁Khan": 51345,
  "平均": 24850,
  "咄": 33624,
  "▁Astro": 53615,
  "▁tennis": 49133,
  "광": 38556,
  "▁Interes": 48144,
  "體": 51644,
  "▁무료": 37646,
  "▁Ağdam": 18992,
  "schlaf": 22984,
  "▁asukoha": 14945,
  "▁2016": 51564,
  "▁Pingback": 15646,
  "▁Mr": 53313,
  "▁French": 55540,
  "ners": 40657,
  "▁Pengarah": 10082,
  "液": 35432,
  "운": 6154,
  "▁engin": 864,
  "东北": 9581,
  "อนุมัติ": 26739,
  "▁První": 3104,
  "▁Fed": 52420,
  ":07": 36852,
  "▁inversión": 57148,
  "▁مترو": 21868,
  "542": 15774,
  "DU": 19084,
  "墾丁": 28095,
  "▁Nota": 40975,
  "▁Help": 39389,
  "瞰": 29055,
  "▁fixa": 42224,
  "▁Bol": 7409,
  "▁qëndron": 14635,
  "某些": 44527,
  "band": 52925,
  "ildi": 3612,
  "❍": 33583,
  "앳": 30724,
  "肯定": 25003,
  "vao": 42849,
  "shwa": 37079,
  "蛰": 33175,
  "▁своему": 856,
  "▁Cloud": 42425,
  "インターネット": 47601,
  "zz": 9495,
  "雕塑": 19546,
  "研發": 48126,
  "▁thy": 56497,
  "ર્થ": 6876,
  "替": 37129,
  "estre": 37678,
  "DAC": 20526,
  "沒": 3523,
  "ផ": 8184,
  "▁करनी": 17291,
  "time": 46290,
  "chia": 39012,
  "press": 4681,
  "行く": 48907,
  "涟": 30700,
  "pris": 26878,
  "ica": 23186,
  "۰۱": 17709,
  "리는": 39815,
  "▁основана": 18351,
  "▁sharing": 44051,
  "stall": 55633,
  "▁Semi": 53386,
  "有所": 37210,
  "▁نفرت": 7635,
  "▁henvisning": 25217,
  "▁ri": 10323,
  "ضبط": 13637,
  "▁Špan": 5269,
  "▁early": 39348,
  "TIM": 48830,
  "эра": 3716,
  "幂": 31349,
  "arma": 33956,
  "券": 36988,
  "▁Girl": 41410,
  "時は": 43787,
  "始まった": 26676,
  "▁بەرگەن": 8938,
  "财富": 55639,
  "▁Ziyaret": 18707,
  "睾": 30377,
  "▁Pravilnik": 1201,
  "acha": 16411,
  "▁sell": 50624,
  "mpa": 12573,
  "類似": 986,
  "▁catalog": 49655,
  "διαμαρτυρ": 23331,
  "▁2007,": 45021,
  "▁barang": 11313,
  "▁permitido": 15045,
  "▁didn": 13940,
  "▁ven": 47019,
  "▁podpisan": 20948,
  "▁γύρο": 26847,
  "uzu": 43933,
  "zellen": 18262,
  "▁ତେଲ": 19934,
  "這裏": 17366,
  "▁petek": 8696,
  "olin": 46443,
  "점을": 44953,
  "cot": 42287,
  "AMENTO": 4753,
  "열": 36538,
  "▁JavaScript": 18065,
  "xia": 36071,
  "hir": 33,
  "laza": 43682,
  "돋": 25808,
  "学科": 50019,
  "▁공동": 54582,
  "▁سیل": 4221,
  "猜测": 27381,
  "gros": 54215,
  "豬": 51236,
  "▁qartulad": 9358,
  "▁Aristo": 6663,
  "VALI": 21863,
  "風格": 40898,
  "▁qaldı": 1626,
  "KE": 12542,
  "▁Skype": 43917,
  "Zi": 46302,
  "doras": 42372,
  "span": 20826,
  "▁ਪੇਸ਼": 642,
  "辦": 34841,
  "▁स्वदेश": 8828,
  "▁სს": 18384,
  "Ղ": 4023,
  "▁idadi": 7342,
  "▁Kemp": 3036,
  "と比べて": 26398,
  "ที่แท้จริง": 28502,
  "▁Caesar": 47698,
  "鉴定": 24010,
  "حشر": 22139,
  "▁tilfreds": 11381,
  "批": 35480,
  "迳": 32744,
  "二人": 46323,
  "ations": 24021,
  "▁מגוון": 624,
  "▁Engels": 44009,
  "椭": 31142,
  "として": 45363,
  "▁풍": 52471,
  "▁mogu": 3252,
  "강": 9507,
  "but": 54329,
  "▁discuss": 41387,
  "▁дазваляе": 6599,
  "Единствен": 12800,
  "▁stereotyp": 17052,
  "燎": 30839,
  "不需要": 43981,
  "▁yog": 4425,
  "▁شاخص": 6065,
  "烟": 37270,
  "▁Maja": 41655,
  "": 31373,
  "▁Perfect": 50205,
  "▁gamma": 54231,
  "▁perc": 25158,
  "นิตยสาร": 27219,
  "也能": 38796,
  "▁sərəncam": 4453,
  "በለ": 8667,
  "▁fritt": 56886,
  "▁diyeta": 1466,
  "hip": 50883,
  "▁inima": 595,
  "▁préfér": 6986,
  "RS": 12790,
  "対": 46441,
  "▁Mısır": 16517,
  "staat": 42789,
  ":「": 10961,
  "ตั้งอยู่": 1461,
  "чном": 5679,
  "드리": 44864,
  "▁minimum": 12877,
  "韩国": 38208,
  "麟": 22367,
  "▁Edel": 7722,
  "ambula": 20596,
  "▁tingkah": 23640,
  "CER": 2336,
  "פֿן": 12503,
  "▁गर्छु": 21157,
  "nasta": 52061,
  "▁Patri": 45596,
  "▁rådighed": 17415,
  "▁פּל": 14670,
  "▁சிறப்ப": 21888,
  "equipament": 25098,
  "▁RFE": 2394,
  "▁condensa": 19853,
  "ូស": 14491,
  "جلة": 7888,
  "▁skill": 3180,
  "▁लागले": 6721,
  "马": 46063,
  "骏": 29532,
  "▁attraversa": 20470,
  "审判": 19288,
  "▁campuran": 16298,
  "öntö": 16049,
  "▁آدھ": 26516,
  "cci": 43794,
  "ha": 43844,
  "▁прояви": 4689,
  "驚訝": 27896,
  "▁domhain": 7632,
  "▁වන්න": 928,
  "▁інвест": 9843,
  "年間": 45589,
  "קומה": 13088,
  "ρης": 7197,
  "):": 23435,
  "jeva": 39096,
  "▁Lot": 43142,
  ":10": 12171,
  "▁GAL": 52900,
  "▁عاشورا": 20328,
  "▁pick": 39409,
  "虐待": 25580,
  "pelejä": 19587,
  "▁Search": 37003,
  "raw": 52601,
  "代表": 49105,
  "肅": 27034,
  "事业": 35616,
  "軾": 33383,
  "RL": 35866,
  "淀": 15407,
  "▁ఆంధ్రప్రదేశ్": 1093,
  "▁Cod": 44848,
  "▁appartamento": 3482,
  "▁Vad": 1079,
  "လူမျိုး": 25634,
  "—": 30252,
  "ราศี": 19553,
  "▁Metal": 42101,
  "▁tai": 333,
  "▁tang": 33955,
  "▁horo": 55509,
  "蠡": 32590,
  "▁создава": 3938,
  "Be": 48522,
  "rik": 24758,
  "تذكر": 2773,
  "▁Lille": 46185,
  "essen": 38728,
  "▁gwirfoddol": 27997,
  "新一轮": 24831,
  "路透社": 25037,
  "▁Трен": 10301,
  "▁savo": 38550,
  "utilisation": 42610,
  "▁арман": 15457,
  "}": 52613,
  "▁ezagun": 13292,
  "▁LEG": 8240,
  "▁جنګ": 1517,
  "🎅": 30894,
  "xit": 27607,
  "Á": 47992,
  "캅": 31676,
  "▁21-": 34590,
  "▁Нис": 20367,
  "▁2017)": 52535,
  "▁20%": 6792,
  "견": 48512,
  "▁polskie": 15911,
  "全省": 51429,
  "行為": 34811,
  "Apple": 50816,
  "穿梭": 25371,
  "Донбас": 16055,
  "friend": 53343,
  "消費者金融": 21358,
  "啥": 54573,
  "充满": 52425,
  "▁pull": 43009,
  "os": 27196,
  "擱": 30250,
  "kee": 43138,
  "▁prom": 35607,
  "鲆": 32973,
  "فيسبوك": 16362,
  "cināt": 4635,
  "企": 36362,
  "▁بالرياض": 23542,
  "ED": 17390,
  "▁Thank": 34109,
  "くなる": 47796,
  "彩票": 54678,
  "▁조사": 50051,
  "▁meio": 16496,
  "も": 53706,
  "▁Arduino": 26474,
  "刘": 21758,
  "gler": 55749,
  "▁137": 47750,
  "▁iPad": 18179,
  "▁Łukasz": 27740,
  "異なります": 21901,
  "氣候": 16509,
  "▁Lima": 43227,
  "mada": 13439,
  "停下": 23142,
  "ere": 8751,
  "▁Orange": 50676,
  "一辆": 5657,
  "▁исповед": 24810,
  "వై": 56899,
  "になると": 52591,
  "▁풀어": 22573,
  "▁필요한": 44906,
  "▁ringrazia": 16593,
  "▁posts": 36725,
  "ardo": 40926,
  "▁tharla": 19456,
  "保留": 46118,
  "▁International": 53175,
  "昌": 45264,
  "資訊": 10755,
  "ผมบลอนด์": 25046,
  "▁τηλε": 11586,
  "▁stok": 51757,
  "ฃ": 29699,
  "变化": 34968,
  "▁Kone": 2123,
  "場合には": 49773,
  "▁მნიშვნელოვანი": 57162,
  "fung": 37664,
  "▁agent": 28271,
  "质": 17170,
  "▁militār": 24805,
  "≦": 29794,
  "験": 30625,
  "▁करेगी": 18681,
  "džer": 3035,
  "癲": 30397,
  "▁structure": 41519,
  "▁Ple": 21030,
  "▁Associa": 13997,
  "手軽に": 28285,
  "샀": 29432,
  "▁zlato": 2321,
  "▁نهائي": 5230,
  "▁VIP": 37309,
  "▁samaan": 10662,
  "āri": 46985,
  "▁wywiad": 19916,
  "▁dias": 11613,
  "▁Marx": 48065,
  "เลสเบี้ยน": 25377,
  "▁развоја": 2690,
  "켑": 32501,
  "": 31608,
  "▁Ақтөбе": 7707,
  "lenir": 14618,
  "with": 51078,
  "人體": 4862,
  "▁വേണ": 15746,
  "▁Retail": 22403,
  "▁Mars": 27536,
  "قون": 9723,
  "▁Tuy": 25274,
  "▁mallonga": 24926,
  "лууд": 16413,
  "▁sangatlah": 19347,
  "▁green": 43310,
  "▁Br": 7475,
  "АБА": 12369,
  "ina": 54468,
  "柒": 31465,
  "らず": 39235,
  "ण्यास": 4121,
  "▁요소": 9883,
  "须": 56419,
  "▁point": 47026,
  "rzecież": 23404,
  "▁emergency": 14359,
  "▁cases": 43062,
  "LONG": 17462,
  "mmin": 35556,
  "聋": 29592,
  "괜": 33817,
  "храни": 3024,
  "孚": 30307,
  "▁morale": 53584,
  "▁Nation": 52917,
  "▁kooxaha": 27010,
  "▁vehículo": 3559,
  "▁izmenja": 27252,
  "🐞": 32378,
  "Union": 11396,
  "얕": 31335,
  "▁Gu": 49090,
  "現金": 50681,
  "▁17,": 24812,
  "場": 43886,
  "wing": 11433,
  "mon": 38819,
  "追": 17013,
  "💥": 29171,
  "arna": 41427,
  "襁": 33262,
  "▁fila": 43864,
  "家中": 51990,
  "▁208": 56020,
  "▁Prae": 51843,
  "▁großes": 9280,
  "▁Colle": 55664,
  "퀴": 20780,
  "▁breast": 45293,
  "原则": 48330,
  "Bu": 49943,
  "לשון": 1746,
  "▁κατάλληλο": 28826,
  "禁止": 43727,
  "▁киргизүү": 15619,
  "옇": 33223,
  "▁penumpang": 10717,
  "唠": 30023,
  "vers": 51768,
  "▁bonus": 55951,
  "eris": 33858,
  "books": 52586,
  "īsim": 19677,
  "klej": 9583,
  "GO": 21935,
  "甜蜜": 16799,
  "▁repe": 49079,
  "藏": 21511,
  "čkách": 20922,
  "▁ν": 33245,
  "▁പേടി": 14055,
  "▁σταματήσ": 17495,
  "陨": 30476,
  "间": 2963,
  "olta": 35537,
  "▁Moon": 44759,
  "▁Сталин": 9282,
  "▁dragen": 7271,
  "世界上最": 9976,
  "爸": 53128,
  "▁Lit": 34899,
  "▁kannalta": 7013,
  "▁Dei": 20478,
  "▁l": 56220,
  "鼓励": 47697,
  "ပြောင်းလဲ": 20255,
  "▁spot": 7825,
  "▁Phi": 42672,
  "▁Mittel": 40848,
  "镣": 32981,
  "unga": 35197,
  "▁деякі": 3700,
  "▁reuni": 39981,
  "ၿငိမ္းခ်မ္း": 18978,
  "达成": 52494,
  "▁bredt": 6448,
  "გვერდ": 57516,
  "基于": 48663,
  "▁trzyma": 57276,
  "hrif": 9547,
  "▁Kjell": 19450,
  "蘅": 32682,
  "▁ಅತೀ": 25068,
  "▁ben": 13750,
  "▁trin": 42159,
  "▁LR": 458,
  "ನಾರಾಯಣ": 17376,
  "balulekile": 24913,
  "სისხლ": 21127,
  "dare": 34687,
  "▁즉": 50097,
  "▁Naz": 47303,
  "jskem": 10123,
  "ō": 49048,
  "癢": 26926,
  "▁fali": 5015,
  "ുറപ്പ": 23662,
  "连": 6987,
  "▁Fylkes": 23018,
  "даецца": 14420,
  "పోయ": 14681,
  "토토": 54458,
  "⋅": 29430,
  "ருவ": 14667,
  "尤": 53056,
  "這樣": 19067,
  "▁वही": 6725,
  "વલ": 1275,
  "都要": 38565,
  "pien": 55007,
  "至少": 34460,
  "蛊": 31256,
  "trekker": 52296,
  "舗": 29816,
  "養": 23543,
  "hra": 4780,
  "西班牙": 44315,
  "izen": 43093,
  "さんの": 37822,
  "és": 26189,
  "värdering": 5118,
  "dini": 34248,
  "▁2500": 41802,
  "ddf": 7035,
  "▁Iran": 19657,
  "▁faida": 14341,
  "▁giun": 211,
  "▁XV": 41669,
  "rau": 15154,
  "dagi": 47383,
  "hely": 15919,
  "聖誕": 4781,
  "▁extension": 3053,
  "▁goes": 46493,
  "ニ": 35154,
  "▁sup": 13690,
  "直": 46419,
  "▁vote": 40730,
  "Chandigarh": 28331,
  "ירוש": 10337,
  "▁þy": 2030,
  "▁вважати": 24043,
  "▁Rec": 42387,
  "▁van": 7457,
  "è": 20825,
  "嘉宾": 18232,
  "32": 47593,
  "ຖ່າຍ": 22224,
  "nies": 49263,
  "san": 11083,
  "kundi": 6372,
  "tán": 27936,
  "ВАНЕ": 11943,
  "▁хаана": 16249,
  "▁Pip": 55759,
  "▁Woord": 6257,
  "▁възприема": 25193,
  "▁Tani": 53685,
  "▁választott": 7320,
  "▁Innovation": 51575,
  "▁Yi": 40378,
  "夙": 31163,
  "GI": 18263,
  "纳": 12952,
  "▁Pilipino": 3867,
  "rande": 46524,
  "▁source": 36328,
  "Ze": 42427,
  "✪": 28422,
  "ဖက်": 57304,
  "ဝန္ႀကီး": 22558,
  "죠": 39621,
  "494": 14691,
  "وره": 20,
  "接到": 54776,
  "继": 56778,
  "icky": 41382,
  "תמיכה": 3215,
  "▁bel": 55514,
  "able": 35372,
  "▁abuur": 8815,
  "77": 10948,
  "▁vormi": 8009,
  "▁తెలి": 4347,
  "насьці": 15679,
  "出现了": 53323,
  "▁organisation": 42959,
  "▁විශ්වාස": 2158,
  "дөй": 5001,
  "▁റഷ്യ": 25873,
  "▁Dasar": 56962,
  "Cymru": 27205,
  "▁전자": 50673,
  "震": 40465,
  "Shabaab": 56856,
  "資": 25458,
  "▁cache": 52844,
  "▁México": 38660,
  "▁PLUS": 3707,
  "▁главу": 18291,
  "▁CI": 34434,
  "▁opis": 16684,
  "▁принципе": 7799,
  "▁Desværre": 28600,
  "污染": 37459,
  "家長": 50909,
  "arðandi": 12680,
  "arri": 43513,
  "撤": 48039,
  "▁കയറിയ": 24491,
  "▁2025": 51294,
  "짰": 33039,
  "▁ταινία": 1724,
  "ܝ": 32044,
  "▁följd": 12402,
  "": 32679,
  "▁식사": 55877,
  "원주": 20613,
  "olt": 36025,
  "▁LI": 16132,
  "curi": 22580,
  "▁પંચ": 23502,
  "したり": 36536,
  "藓": 31999,
  "イラスト": 25981,
  "▁počtu": 9394,
  "▁kulturore": 19338,
  "ศรีสะเกษ": 25450,
  "▁елдің": 8680,
  "▁ray": 46999,
  "mys": 50515,
  "xus": 52199,
  "隐": 51058,
  "一分": 11829,
  "če": 34384,
  "▁PHP": 42085,
  "語言": 45538,
  "▁Cras": 37401,
  "▁Herz": 42249,
  "▁மலை": 6456,
  "▁Farm": 43597,
  "ಕರಣ": 12861,
  "▁Anta": 5615,
  "sala": 22223,
  "쑹": 32868,
  "▁Symbol": 7877,
  "▁zili": 4400,
  "▁telefoonnummer": 26639,
  "▁purchase": 45878,
  "▁less": 39791,
  "▁volve": 5158,
  "▁style": 23189,
  "▁atlaides": 21829,
  "婚姻": 42293,
  "▁Torre": 44213,
  "cm": 39323,
  "的消息": 56098,
  "▁demon": 51532,
  "idad": 38880,
  "▁judici": 54053,
  "ativ": 35326,
  "600": 1866,
  "▁مختار": 16969,
  "▁UNI": 48503,
  "aidh": 33949,
  "筵": 31315,
  "▁kurtar": 1501,
  "розповсюджен": 25532,
  "▁synd": 48482,
  "集團": 38074,
  "▁among": 44552,
  "▁ففي": 14919,
  "чылар": 900,
  "▁intr": 55980,
  "▁Рис": 1130,
  "▁Pf": 54184,
  "hod": 50307,
  "dun": 22739,
  "船": 12083,
  "倹": 33158,
  "一個": 40681,
  "▁Manu": 45838,
  "ючі": 11388,
  "▁pü": 5081,
  "stia": 47827,
  "уздан": 21613,
  "аѓање": 19208,
  "▁Cher": 49367,
  "▁хуралд": 13116,
  "ential": 52470,
  "isto": 43562,
  "tip": 35823,
  "☝": 29541,
  "rag": 34799,
  "▁дэвшигч": 27758,
  "인가": 3601,
  "天使": 1113,
  "▁Trade": 47467,
  "elm": 36537,
  "접": 41096,
  "鯨": 28330,
  "鉑": 30668,
  "▁jūt": 9768,
  "▁beantworten": 18079,
  "god": 51600,
  "▁gebed": 15232,
  "▁nhá": 14901,
  "ሲኖዶስ": 15488,
  "선": 43151,
  "▁fyldt": 8198,
  "轆": 31137,
  "편": 32802,
  "荣获": 27727,
  "河南": 4770,
  "⠀": 16430,
  "します": 43581,
  "▁ਪੁੱਤਰ": 23050,
  "emper": 54615,
  "anne": 34595,
  "-200": 52236,
  "▁незна": 8385,
  "マ": 56222,
  "เกณฑ์": 14043,
  "ξεχάσ": 26021,
  "▁المنتجات": 14644,
  "門": 53441,
  "▁උතුරු": 11640,
  "▁Rua": 48254,
  "休息": 39588,
  "▁taifa": 45219,
  "▁Кому": 8738,
  "▁kullanarak": 3753,
  "▁Napoli": 47873,
  "添加": 43749,
  "▁הפס": 1409,
  "雛": 29520,
  "kasika": 2673,
  "虧": 17555,
  "REL": 16975,
  "霊": 14347,
  "lulu": 54584,
  "▁classe": 28214,
  "▁Peri": 43070,
  "ሖ": 30590,
  "▁dofinansowanie": 28816,
  "▁järkevä": 25618,
  "網": 55078,
  "บางครั้ง": 21272,
  "▁Island": 19183,
  "礫": 30869,
  "▁항상": 54884,
  "▁hay": 23029,
  "AH": 25340,
  "megőrzés": 25997,
  "國立": 54608,
  "watch": 37873,
  "▁Final": 34701,
  "ລະອຽດ": 15557,
  "▁olmaya": 3403,
  "▁Welt": 6002,
  "▁muutenkin": 19413,
  "▁FRA": 54957,
  "▁prof": 12399,
  "ခက္": 19017,
  "▁salute": 42828,
  "2004": 35982,
  "And": 38767,
  "▁производа": 14402,
  "▁minute": 12782,
  "忽": 4163,
  "滲": 24666,
  "按照": 16674,
  "▁Kiel": 38929,
  "▁עבודת": 11913,
  "▁form": 36477,
  "▁Rok": 37631,
  "别人": 34465,
  "瘟": 29479,
  "▁bón": 12404,
  "uld": 43744,
  "▁бағалы": 26146,
  "nil": 16848,
  "懟": 32739,
  "骤": 29834,
  "下班": 14038,
  "২৩": 23718,
  "·": 6967,
  "优势": 37581,
  "눇": 33576,
  "깡": 29971,
  "▁darparu": 6127,
  "▁jednání": 10063,
  "NI": 51553,
  "▁Vál": 17432,
  "▁maintain": 51034,
  "▁Tr": 44412,
  "Soft": 15301,
  "▁Install": 2068,
  "script": 36600,
  "▁وقو": 17450,
  "したい": 18464,
  "▁civînê": 24526,
  "lac": 35254,
  "body": 38784,
  "▁Mus": 20792,
  "▁Rahmat": 22213,
  "▁Här": 3699,
  "bü": 42922,
  "什麼": 16592,
  "▁Lé": 38114,
  "▁הנדרש": 26362,
  "▁ro": 23176,
  "扪": 33270,
  "▁შიში": 24338,
  "▁пяти": 625,
  "▁Pre": 20446,
  "▁)": 9447,
  "↹": 31088,
  "ow": 54273,
  "❧": 31729,
  "▁mreže": 1546,
  "仙": 39411,
  "▁인생": 3370,
  "ाएका": 5666,
  "▁denuncia": 38985,
  "ੰਦਾ": 12613,
  "餮": 31881,
  "魟": 32227,
  "zo": 4002,
  "的不": 46799,
  "▁Bett": 48730,
  "anto": 7001,
  "珐": 33075,
  "ogi": 44196,
  "miga": 51699,
  "貂": 30677,
  "▁kĩ": 21085,
  "▁forventer": 14580,
  "enne": 14657,
  "▁rand": 34789,
  "▁Pagrindinė": 28814,
  "▁interpreta": 34373,
  "▁ਪਹਿਲੀ": 10919,
  "安装": 44951,
  "容量": 52617,
  "▁Lun": 45446,
  "▁Kalo": 43230,
  "▁Pru": 44686,
  "煤": 51875,
  "▁vojna": 17152,
  "": 31963,
  "õõr": 17229,
  "龢": 32485,
  "▁Dw": 3680,
  "Sal": 43867,
  "wiesz": 4921,
  "Qa": 43548,
  "샌": 18507,
  "ṇ": 46502,
  "中国科学院": 13118,
  "競爭力": 21847,
  "▁kai": 42258,
  "▁novedades": 21836,
  "ट्र": 173,
  "▁ക്കുന്ന": 795,
  "渗透": 26523,
  "線上": 40253,
  "▁қарасты": 3663,
  "▁pogodbe": 4785,
  "动物": 49749,
  "▁vinne": 2165,
  "ongelma": 25283,
  "dem": 41456,
  "him": 1847,
  "ಜನೆ": 21045,
  "▁you": 39446,
  "ผึ้ง": 25034,
  "reich": 36494,
  "今後": 49619,
  "BN": 43852,
  "▁wedding": 52512,
  "ിക്കാന": 9474,
  "▁Mətndə": 23397,
  "▁Jugend": 46181,
  "中小企業": 13817,
  "лски": 5800,
  "▁పరిచయం": 9451,
  "▁Joe": 39609,
  "арч": 4052,
  "ຊ່ວຍເຫຼືອ": 16884,
  "▁Budak": 21848,
  "▁accusa": 56041,
  "戏": 49327,
  "athu": 45932,
  "▁Setiausaha": 21439,
  "poko": 43751,
  "▁پیٹ": 8367,
  "IMI": 46899,
  "ischer": 44570,
  "깨": 47789,
  "▁politici": 39424,
  "炸": 43173,
  "▁Skil": 15274,
  "쿵": 30337,
  "寻找": 49068,
  "學生": 3935,
  "個月": 41889,
  "head": 36294,
  "eman": 46907,
  "évolution": 53543,
  "▁Район": 15737,
  "▁Eco": 36324,
  "受理": 7371,
  "▁പുറത്തേക്ക": 25562,
  "▁Ave": 39595,
  "摂": 23928,
  "▁market": 15881,
  "所需的": 6894,
  "羧": 31749,
  "▁Beli": 37669,
  "态": 48578,
  "▁sibi": 38559,
  "lep": 6653,
  "▁families": 54127,
  "kongres": 22133,
  "추": 34902,
  "▁bibli": 46624,
  "癫": 30309,
  "▁wertvolle": 25197,
  "▁ironi": 45461,
  "进行": 37076,
  "▁хүмүүсийн": 8283,
  "ნიდან": 19819,
  "▁one": 14754,
  "試": 5851,
  "鄭": 50880,
  "▁Professional": 46796,
  "▁literat": 52196,
  "敖": 30230,
  "6)": 46096,
  "tery": 52590,
  "層": 11854,
  "を抱え": 17965,
  "ષ્ણ": 24573,
  "▁opisuje": 15758,
  "料": 54343,
  "azh": 45466,
  "▁DW": 35991,
  "来自": 24016,
  "▁పుస్తకం": 11112,
  "▁snap": 51228,
  "煙": 42198,
  "▁обновява": 28625,
  "▁Hoeveel": 26486,
  "促": 46960,
  "stige": 49667,
  "▁Hag": 39610,
  "飙": 28758,
  "▁Zahid": 13077,
  "dhur": 42943,
  "▁heat": 52193,
  "▁зручно": 19765,
  "▁절차": 17734,
  "▁11:00": 40948,
  "秘书长": 14449,
  "槐": 30743,
  "▁Sport": 42002,
  "妓": 29473,
  "მართლმადიდებ": 16363,
  "怄": 32804,
  "sýni": 12801,
  "下載": 39693,
  "▁gau": 37288,
  "▁1869": 19027,
  "聞き": 53753,
  "▁වචනය": 23961,
  "量": 36864,
  "TOR": 34626,
  "특별": 24872,
  "bent": 51196,
  "▁develop": 53666,
  "铃": 20967,
  "sse": 34286,
  "▁Tito": 51725,
  "▁የቀድሞው": 24420,
  "▁دستگیر": 9238,
  "▁története": 3891,
  "▁örugg": 14048,
  "▁ner": 2756,
  "獺": 30868,
  "▁intet": 2845,
  "▁cm": 18754,
  "tuma": 49752,
  "ാണെന്നും": 5727,
  "▁adjudica": 25250,
  "铀": 30745,
  "▁kombëtar": 16110,
  "Яндекс": 21058,
  "▁தெரிவிக்க": 12488,
  "magnet": 13029,
  "ўскага": 37,
  "▁Hos": 23292,
  "loge": 41508,
  "▁myself": 38090,
  "▁finder": 36910,
  "双方": 35671,
  "kat": 27557,
  "lü": 44167,
  "落": 48210,
  "gó": 57497,
  "eline": 46115,
  "munt": 45145,
  "▁processo": 10945,
  "▁Vou": 54613,
  "▁quite": 36683,
  "▁выкарыстання": 12574,
  "But": 52799,
  "▁Sigmund": 25762,
  "rito": 39854,
  "趄": 32989,
  "öð": 7448,
  "atus": 21122,
  "章": 1064,
  "输": 46202,
  "▁dnevi": 14479,
  "cré": 45702,
  "▁Musa": 36173,
  "▁Cancel": 52281,
  "MULA": 23012,
  "nike": 7459,
  "buh": 46094,
  "▁EX": 35585,
  "蚕": 30600,
  "死": 45133,
  "▁web": 11193,
  "▁business": 52357,
  "رانی": 5203,
  "▁פרסום": 6101,
  "뭇": 29586,
  "кажите": 1118,
  "ats": 57035,
  "▁adult": 33922,
  "bunt": 51945,
  "▁1994": 7930,
  "▁slapukus": 6409,
  "珑": 30849,
  "▁Федеральной": 27547,
  "▁carcere": 23120,
  "atio": 35290,
  "的主": 53231,
  "กุ้ง": 18125,
  "▁uveljavi": 26485,
  "击败": 24676,
  "השקעות": 11038,
  "▁alle": 50593,
  "▁žodžiu": 23538,
  "▁took": 37626,
  "традиционал": 23213,
  "▁Hain": 43384,
  "▁생활": 46198,
  "▁superior": 11052,
  "▁경찰": 3108,
  "fn": 11447,
  "▁nominal": 2498,
  "Est": 48632,
  "▁AI": 39107,
  "쩨": 32668,
  "逻": 29141,
  "keria": 8032,
  "▁špeciáln": 16843,
  "▁HD": 42088,
  "購物": 38164,
  "棄": 52037,
  "▁Evropy": 19905,
  "▁Rä": 45375,
  "rant": 12394,
  "▁Jum": 48955,
  "SF": 38988,
  "పాటు": 16109,
  "igo": 23532,
  "▁เพลง": 57065,
  "▁Ki": 12331,
  "▁Ident": 49603,
  "▁մահացել": 25195,
  "▁1300": 48010,
  "▁bolesť": 24530,
  "▁autorizza": 19702,
  "的關係": 7785,
  "舆": 29868,
  "个月": 36829,
  "pina": 27084,
  "▁تقريب": 15751,
  "甸": 22615,
  "▁Smo": 45381,
  "▁Xe": 26669,
  "▁Gear": 45781,
  "▁povezavo": 23772,
  "のみ": 42552,
  "▁Dari": 15624,
  "▁여부": 15453,
  "▁Süd": 44918,
  "ための": 51464,
  "ufgrund": 20906,
  "psu": 55466,
  "ő": 35747,
  "▁Santa": 51560,
  "伴随着": 22763,
  "潇": 29341,
  "alen": 46868,
  "UT": 17433,
  "▁199": 54604,
  "▁beautiful": 37688,
  "▁Cook": 52005,
  "sichtlich": 4243,
  "▁practic": 50467,
  "▁magandang": 4736,
  "▁visita": 56709,
  "▁profesionální": 23572,
  "鶏": 29692,
  "聿": 31415,
  "躲": 55967,
  "▁sorğu": 22493,
  "▁halv": 20815,
  "Day": 56772,
  "让我们": 42955,
  "▁21:00": 53511,
  "ifi": 34812,
  "▁foc": 34064,
  "rín": 52156,
  "▁hat": 6397,
  "pico": 55098,
  "fl": 14065,
  "▁drift": 38909,
  "消息": 20257,
  "▁айткан": 56967,
  "発生": 2886,
  "▁уряд": 2379,
  "▁shka": 57390,
  "▁lid": 16073,
  "▁les": 21706,
  "クリ": 4120,
  "百年": 56090,
  "▁ret": 705,
  "dw": 38901,
  "▁Cla": 37050,
  "▁Ŝi": 56921,
  "卻": 57045,
  "▁Kaysa": 17608,
  "▁státní": 8357,
  "▁sini": 54041,
  "作家": 46947,
  "了我": 51456,
  "ks": 5634,
  "duo": 35421,
  ":54": 37500,
  "▁Есен": 23165,
  "一面": 54514,
  "جبهة": 8353,
  "意大利": 43434,
  "▁קבלת": 2908,
  "пропорционал": 27025,
  "▁Aslında": 11888,
  "댄": 21210,
  "чё": 8505,
  "▁Molt": 48594,
  "▁מיוחד": 57380,
  "▁Mash": 55117,
  "▁Sel": 4125,
  "ότερη": 5795,
  "有点": 37971,
  "▁brin": 39996,
  "方に": 55813,
  "▁passer": 3508,
  "作為": 31007,
  "á": 49458,
  "▁han": 51487,
  "▁căreia": 26269,
  "አሜሪካ": 10891,
  "venti": 54037,
  "ZO": 25024,
  "十年": 42462,
  "▁opere": 37113,
  "噢": 29195,
  "妹": 39303,
  "▁Web": 39544,
  "ັສ": 17993,
  "▁הינו": 4657,
  "事実": 217,
  "▁propose": 34280,
  "ande": 41056,
  "妲": 31320,
  "fen": 46842,
  "pik": 35676,
  "▁bru": 8929,
  "▁mandar": 53757,
  "出てくる": 5271,
  "sakit": 4134,
  "▁Qara": 44393,
  "審": 42930,
  "本身": 34224,
  "郁": 55681,
  "处于": 43080,
  "ME": 1602,
  "言う": 48405,
  "▁ಫ್ಲ": 17800,
  "инновациялық": 23095,
  "1.1": 55497,
  "횟": 29420,
  "фоб": 20101,
  "▁Match": 48458,
  "▁Trang": 35072,
  "لينڊ": 26587,
  "▁защити": 14863,
  "stov": 37696,
  "ojn": 37874,
  "νση": 1344,
  "▁քննարկում": 19281,
  "ઈન": 3651,
  "加上": 34641,
  "瑀": 32088,
  "忾": 33020,
  "▁discrimina": 44879,
  "憔": 31077,
  "ቩ": 31806,
  "玖": 29627,
  "γ": 42309,
  "▁reģistrē": 22116,
  "pallo": 50444,
  "▁nomine": 41320,
  "巨大": 43023,
  "cure": 45350,
  "▁Jackie": 19779,
  "liga": 40163,
  "▁měsíce": 8316,
  "▁sce": 1887,
  "ຂອງຕົນ": 15765,
  "▁aurez": 18687,
  "▁ГОСТ": 23723,
  "▁Vendi": 12993,
  "砺": 29362,
  "iet": 53645,
  "▁muziki": 4212,
  "▁17-": 34570,
  "酒店": 49187,
  "▁Nika": 10874,
  "Asocio": 8725,
  "▁bora": 35829,
  "▁lita": 4119,
  "▁ملازم": 14769,
  "直到": 39425,
  "ිණි": 3745,
  "▁Zobraziť": 3002,
  "▁Oi": 44868,
  "slova": 54710,
  "乏": 2292,
  "援": 48691,
  "步行": 52584,
  "▁Féin": 15273,
  "▁신고해주시": 28828,
  "ᅳ": 19994,
  "褐": 29095,
  "ව්ව": 3691,
  "▁hue": 51601,
  "▁Dru": 44939,
  "▁nastupi": 11540,
  "xta": 35659,
  "言": 46386,
  "inu": 40498,
  "▁mandat": 23454,
  "▁intellectu": 55404,
  "alueella": 15379,
  "諷": 28965,
  "XL": 49816,
  "▁Comp": 13261,
  "etes": 36067,
  "▁Vah": 49615,
  "grav": 43677,
  "总": 49359,
  "학교": 49710,
  "сутнасць": 26767,
  "垭": 32403,
  "▁Lux": 53693,
  "▁igualmente": 7555,
  "琴": 50254,
  "▁Kemi": 57293,
  "模式": 5687,
  "決済": 18502,
  "daba": 46576,
  "▁reca": 45705,
  "స్తాయి": 11258,
  "▁закр": 3169,
  "ómico": 16501,
  "了許多": 18455,
  "സ്റ്റാ": 8025,
  "▁നൽകിയ": 11598,
  "▁아무": 47538,
  "גרה": 18945,
  "vakantie": 19356,
  "▁문제": 37787,
  "drept": 5424,
  "▁loc": 49226,
  "ථාව": 21496,
  "▁घेतला": 1897,
  "▁Jaz": 48777,
  "▁PR": 2242,
  "▁기본": 41252,
  ".9.": 38958,
  "▁Gene": 41971,
  "킷": 28056,
  "αϊκή": 20211,
  "980": 1323,
  "▁legend": 38549,
  "záleží": 11638,
  "▁从": 48290,
  "▁mbështetje": 8018,
  "▁interview": 37232,
  "ត្ថ": 22820,
  "▁농": 47638,
  "▁overblik": 13290,
  "値": 41631,
  "▁delibera": 55399,
  "郧": 32391,
  "▁ලෙඩ": 16996,
  "▁जलविद्युत्": 25691,
  "▁stii": 924,
  "∀": 15238,
  "parte": 36110,
  "▁느낌": 6857,
  "ABI": 2036,
  "▁தொண்ட": 27671,
  "첼": 29435,
  "杯": 27485,
  "▁29": 16209,
  "▁rob": 42862,
  "gno": 2907,
  "▁примени": 2852,
  "सम्पादन": 2549,
  "▁muziejus": 20887,
  "▁배": 15150,
  "ຫນູນ": 24081,
  "▁og": 45866,
  "ក្រោម": 12900,
  "嘉": 36203,
  "▁Барселона": 15023,
  "५०": 2625,
  "결": 33984,
  "▁very": 41478,
  "FA": 11235,
  "ىسىگە": 20713,
  "目前": 41962,
  "ratta": 55100,
  "▁Еден": 17236,
  "▁Castel": 48288,
  "读": 28337,
  "▁образовательн": 1851,
  "▁vết": 607,
  "獣": 29058,
  "▁你": 50356,
  "▁voditelj": 3726,
  "ely": 24331,
  "進": 50617,
  "嬬": 32916,
  "漳": 30126,
  "沾": 11022,
  "脱离": 25956,
  "闘": 16583,
  "itin": 38471,
  "ləyib": 10529,
  "PUR": 48859,
  "ika": 35640,
  "滿足": 44508,
  "项目": 48649,
  "▁특히": 37466,
  "▁rug": 36121,
  "▁Nik": 16892,
  "▁session": 44891,
  "妆": 10449,
  "sler": 45872,
  "▁tried": 38769,
  "▁Pál": 49274,
  "間": 50540,
  "▁Festiwal": 24693,
  "日子": 55298,
  "boom": 1786,
  "驟": 30367,
  "▁Hydro": 6634,
  "▁keçirmək": 21800,
  "▁института": 17989,
  "▁Бај": 21932,
  "▁umiestnen": 11301,
  "सकेपछि": 22706,
  "▁Brü": 13286,
  "▁beaux": 13885,
  "သွင်း": 4669,
  "▁Student": 34486,
  "がある": 51576,
  "эргээ": 21788,
  "behindert": 27846,
  "▁velo": 5928,
  "竅": 29752,
  "просил": 26519,
  "ādi": 49729,
  "▁legătură": 14514,
  "ထုတ်လုပ်": 17491,
  "▁Dön": 53375,
  "数量": 39472,
  "寶貝": 14134,
  "👀": 30688,
  "feminism": 12969,
  "▁gerð": 3965,
  "▁Magac": 21325,
  "佩": 40952,
  "▁바라보": 23643,
  "σοφ": 11708,
  "▁Xuventude": 26938,
  "▁residen": 41505,
  "▁nick": 7192,
  "▁Mukh": 56263,
  "▁kuwaas": 1198,
  "▁sing": 44137,
  "▁izleme": 9143,
  "Via": 38187,
  "▁وست": 3241,
  "被": 7822,
  "▁রান": 9987,
  "▁Ke": 8445,
  "▁Kurdistan": 37157,
  "内部": 39357,
  "▁독립": 16595,
  "▁drum": 42194,
  "製品": 41592,
  "lips": 56400,
  "እንደ": 21945,
  "▁1999.": 44723,
  "ชมพู": 23889,
  "▁for": 57245,
  "▁gross": 44633,
  "▁없이": 40370,
  "▁Jugendlichen": 17642,
  "▁بنائیں": 24139,
  "▁يورپ": 21761,
  "accia": 50002,
  "博": 3004,
  "资料": 36570,
  "▁повідомила": 25127,
  "▁unica": 55162,
  "▁हामीलाई": 4909,
  "储": 52028,
  "นู": 9400,
  "╭": 30440,
  "拉": 36963,
  "▁Information": 36591,
  "▁O": 18018,
  "详情": 57391,
  "▁Liga": 17581,
  "pierw": 57058,
  "Tag": 48175,
  "▁Rotterdam": 50078,
  "ვებული": 16551,
  "町": 31391,
  "ເກັບ": 2731,
  "¬": 38436,
  "▁shkon": 816,
  "▁knyttet": 796,
  "ões": 7500,
  "333": 48022,
  "Apresentação": 25930,
  "ages": 43771,
  "▁Xornal": 19725,
  "широк": 17131,
  "▁стає": 5086,
  "涸": 31034,
  "▁Dor": 34176,
  "▁sincer": 40836,
  "초": 34717,
  "jam": 43293,
  "chadh": 6449,
  "kui": 46062,
  "各國": 12183,
  "jälj": 23447,
  "▁edycja": 22866,
  "浏览器": 24290,
  "▁tan": 25454,
  "▁cinema": 34651,
  "голяма": 13602,
  "▁2016.": 47280,
  "▁pr": 39835,
  "ИЕ": 18806,
  "ingu": 2759,
  "▁මිලදී": 24035,
  "▁Հո": 9332,
  "펫": 29224,
  "扎": 43972,
  "岂": 29350,
  "▁caawi": 12515,
  "ORNA": 22491,
  "▁vekst": 11622,
  "▁Pension": 54116,
  "▁کاربردی": 6502,
  "둣": 32847,
  "Būv": 24246,
  "▁types": 43900,
  "▁consuetudine": 27226,
  "rion": 48966,
  "えた": 49178,
  "专项": 56212,
  "ción": 3799,
  "▁bla": 57347,
  "콥": 30415,
  "ທຸກໆ": 23700,
  "▁OEM": 10507,
  "▁leaders": 5025,
  "nošenje": 16481,
  "▁میزبانی": 20994,
  "륜": 28988,
  "▁අධික": 6573,
  "▁potvrđen": 28522,
  "bau": 8939,
  "▁nur": 15125,
  "─": 54043,
  "tz": 55268,
  "hlo": 39214,
  "▁vinger": 11390,
  "来说": 57223,
  "ビデオ": 21661,
  "▁후": 55991,
  "▁Raum": 40611,
  "κάλεσε": 17570,
  "揠": 33144,
  "剎": 29458,
  "▁тобой": 1877,
  "▁vyroben": 15118,
  "▁sexa": 41527,
  "혼": 38098,
  "▁көйгөй": 20884,
  "▁trouble": 47145,
  "pian": 47349,
  "▁Max": 57299,
  "▁Qur": 36577,
  "hung": 43666,
  "쇄": 16125,
  "tkazilgan": 19395,
  "▁Sjálf": 27827,
  "antwortung": 23920,
  "▁Ciudad": 50200,
  "ese": 51356,
  "優勢": 55137,
  "毁": 53817,
  "끝": 26594,
  "▁Chinese": 51152,
  "▁volim": 19012,
  "ၷ": 30186,
  "▁төгрөгөөр": 21676,
  "fta": 37818,
  "▁ud": 19648,
  "收益": 47921,
  "ธร": 13399,
  "xerunt": 13436,
  "▁виконувати": 18381,
  "▁revi": 12423,
  "儂": 30603,
  "▁Hum": 20595,
  "状況": 35472,
  "cho": 36169,
  "▁capo": 48252,
  "▁Odd": 48614,
  "▁gadi": 2319,
  "▁melan": 44297,
  "馬上": 57229,
  "ຄຸມ": 22685,
  "好きな": 41441,
  "ceiro": 11457,
  "▁class": 19232,
  "┮": 31657,
  "變成": 45263,
  "윳": 32855,
  "▁already": 25146,
  "▁Princip": 52068,
  "velli": 47036,
  "위": 45602,
  "▁Magyar": 22929,
  "诣": 33441,
  "▁fă": 7319,
  "钞": 29657,
  "KÁ": 15702,
  "ych": 41811,
  "솎": 33462,
  "▁Sven": 51631,
  "למה": 499,
  "▁gimt": 23360,
  "▁የደ": 1703,
  "▁habit": 46845,
  "▁5.5": 52978,
  "▁Tot": 9109,
  "diet": 50483,
  "▁Τελικά": 27597,
  "atu": 51994,
  "hang": 53450,
  "color": 41685,
  "▁music": 21367,
  "▁떠": 53486,
  "▁kratke": 18567,
  "加盟": 42117,
  "zić": 312,
  "アメリカ": 44126,
  "▁sin": 54333,
  "▁easily": 50007,
  "▁Olisi": 11796,
  "▁dicta": 35121,
  "拒": 1242,
  "▁radosť": 14536,
  "▁plimba": 13732,
  "基": 56026,
  "▁myšlen": 13419,
  "可能會": 53367,
  "払": 12538,
  "▁ist": 41028,
  "▁Karo": 56309,
  "element": 47037,
  "unta": 25933,
  "▁Schul": 34767,
  "stig": 34149,
  "來自": 35874,
  "▁cit": 17135,
  "▁анхаарал": 19750,
  "倡": 27437,
  "дрицање": 23433,
  "ৰী": 2323,
  "▁하지": 48281,
  "▁izravn": 15153,
[...]
